unsigned char models_model_dense_tflite[] = {
  0x1c, 0x00, 0x00, 0x00, 0x54, 0x46, 0x4c, 0x33, 0x14, 0x00, 0x20, 0x00,
  0x1c, 0x00, 0x18, 0x00, 0x14, 0x00, 0x10, 0x00, 0x0c, 0x00, 0x00, 0x00,
  0x08, 0x00, 0x04, 0x00, 0x14, 0x00, 0x00, 0x00, 0x1c, 0x00, 0x00, 0x00,
  0x90, 0x00, 0x00, 0x00, 0xe8, 0x00, 0x00, 0x00, 0x38, 0x13, 0x00, 0x00,
  0x48, 0x13, 0x00, 0x00, 0x04, 0x19, 0x00, 0x00, 0x03, 0x00, 0x00, 0x00,
  0x01, 0x00, 0x00, 0x00, 0x10, 0x00, 0x00, 0x00, 0x00, 0x00, 0x0a, 0x00,
  0x10, 0x00, 0x0c, 0x00, 0x08, 0x00, 0x04, 0x00, 0x0a, 0x00, 0x00, 0x00,
  0x0c, 0x00, 0x00, 0x00, 0x1c, 0x00, 0x00, 0x00, 0x38, 0x00, 0x00, 0x00,
  0x0f, 0x00, 0x00, 0x00, 0x73, 0x65, 0x72, 0x76, 0x69, 0x6e, 0x67, 0x5f,
  0x64, 0x65, 0x66, 0x61, 0x75, 0x6c, 0x74, 0x00, 0x01, 0x00, 0x00, 0x00,
  0x04, 0x00, 0x00, 0x00, 0x98, 0xff, 0xff, 0xff, 0x0a, 0x00, 0x00, 0x00,
  0x04, 0x00, 0x00, 0x00, 0x07, 0x00, 0x00, 0x00, 0x64, 0x65, 0x6e, 0x73,
  0x65, 0x5f, 0x32, 0x00, 0x01, 0x00, 0x00, 0x00, 0x04, 0x00, 0x00, 0x00,
  0xaa, 0xec, 0xff, 0xff, 0x04, 0x00, 0x00, 0x00, 0x0b, 0x00, 0x00, 0x00,
  0x64, 0x65, 0x6e, 0x73, 0x65, 0x5f, 0x69, 0x6e, 0x70, 0x75, 0x74, 0x00,
  0x02, 0x00, 0x00, 0x00, 0x34, 0x00, 0x00, 0x00, 0x04, 0x00, 0x00, 0x00,
  0xdc, 0xff, 0xff, 0xff, 0x0d, 0x00, 0x00, 0x00, 0x04, 0x00, 0x00, 0x00,
  0x13, 0x00, 0x00, 0x00, 0x43, 0x4f, 0x4e, 0x56, 0x45, 0x52, 0x53, 0x49,
  0x4f, 0x4e, 0x5f, 0x4d, 0x45, 0x54, 0x41, 0x44, 0x41, 0x54, 0x41, 0x00,
  0x08, 0x00, 0x0c, 0x00, 0x08, 0x00, 0x04, 0x00, 0x08, 0x00, 0x00, 0x00,
  0x0c, 0x00, 0x00, 0x00, 0x04, 0x00, 0x00, 0x00, 0x13, 0x00, 0x00, 0x00,
  0x6d, 0x69, 0x6e, 0x5f, 0x72, 0x75, 0x6e, 0x74, 0x69, 0x6d, 0x65, 0x5f,
  0x76, 0x65, 0x72, 0x73, 0x69, 0x6f, 0x6e, 0x00, 0x0e, 0x00, 0x00, 0x00,
  0x4c, 0x12, 0x00, 0x00, 0x44, 0x12, 0x00, 0x00, 0x0c, 0x12, 0x00, 0x00,
  0xf0, 0x11, 0x00, 0x00, 0x90, 0x11, 0x00, 0x00, 0x60, 0x04, 0x00, 0x00,
  0x30, 0x01, 0x00, 0x00, 0xa8, 0x00, 0x00, 0x00, 0xa0, 0x00, 0x00, 0x00,
  0x98, 0x00, 0x00, 0x00, 0x90, 0x00, 0x00, 0x00, 0x88, 0x00, 0x00, 0x00,
  0x68, 0x00, 0x00, 0x00, 0x04, 0x00, 0x00, 0x00, 0x5a, 0xed, 0xff, 0xff,
  0x04, 0x00, 0x00, 0x00, 0x54, 0x00, 0x00, 0x00, 0x0c, 0x00, 0x00, 0x00,
  0x08, 0x00, 0x0e, 0x00, 0x08, 0x00, 0x04, 0x00, 0x08, 0x00, 0x00, 0x00,
  0x10, 0x00, 0x00, 0x00, 0x24, 0x00, 0x00, 0x00, 0x00, 0x00, 0x06, 0x00,
  0x08, 0x00, 0x04, 0x00, 0x06, 0x00, 0x00, 0x00, 0x04, 0x00, 0x00, 0x00,
  0x00, 0x00, 0x00, 0x00, 0x00, 0x00, 0x0a, 0x00, 0x10, 0x00, 0x0c, 0x00,
  0x08, 0x00, 0x04, 0x00, 0x0a, 0x00, 0x00, 0x00, 0x02, 0x00, 0x00, 0x00,
  0x02, 0x00, 0x00, 0x00, 0x04, 0x00, 0x00, 0x00, 0x06, 0x00, 0x00, 0x00,
  0x32, 0x2e, 0x31, 0x35, 0x2e, 0x30, 0x00, 0x00, 0xba, 0xed, 0xff, 0xff,
  0x04, 0x00, 0x00, 0x00, 0x10, 0x00, 0x00, 0x00, 0x31, 0x2e, 0x35, 0x2e,
  0x30, 0x00, 0x00, 0x00, 0x00, 0x00, 0x00, 0x00, 0x00, 0x00, 0x00, 0x00,
  0xc8, 0xe8, 0xff, 0xff, 0xcc, 0xe8, 0xff, 0xff, 0xd0, 0xe8, 0xff, 0xff,
  0xd4, 0xe8, 0xff, 0xff, 0xe6, 0xed, 0xff, 0xff, 0x04, 0x00, 0x00, 0x00,
  0x78, 0x00, 0x00, 0x00, 0x49, 0x5e, 0x10, 0x3e, 0x85, 0xb3, 0x09, 0xbf,
  0x06, 0x1b, 0xe4, 0xbe, 0xd0, 0x0f, 0xd1, 0xbd, 0xd9, 0xec, 0x0d, 0x3f,
  0x2a, 0xd8, 0x29, 0xbe, 0x04, 0x81, 0xcc, 0xbe, 0x73, 0x4f, 0xb1, 0xbc,
  0x8e, 0x91, 0x16, 0xbf, 0xcf, 0x33, 0x16, 0xbf, 0x59, 0xd2, 0x28, 0xbf,
  0xf3, 0x79, 0x37, 0xbf, 0x43, 0x01, 0xdd, 0x3d, 0x24, 0xbe, 0xfe, 0x3e,
  0x79, 0xb2, 0xc3, 0x3e, 0x44, 0x58, 0x43, 0xbf, 0x51, 0xeb, 0x71, 0xbe,
  0x05, 0x24, 0x93, 0x3e, 0xb5, 0xa8, 0xad, 0xbb, 0xd7, 0x33, 0x2d, 0x3e,
  0x8e, 0xc6, 0x4b, 0xbf, 0x4a, 0x6d, 0x17, 0x3f, 0xc2, 0x9d, 0x75, 0xbe,
  0x30, 0x03, 0x0d, 0xbb, 0x45, 0x05, 0x6f, 0xbe, 0xb9, 0xdf, 0x33, 0xbe,
  0x1b, 0x14, 0xcc, 0xbe, 0xf6, 0x91, 0xa3, 0xbe, 0x53, 0xa0, 0xe5, 0xbd,
  0xc7, 0xda, 0x0d, 0xbf, 0x6a, 0xee, 0xff, 0xff, 0x04, 0x00, 0x00, 0x00,
  0x20, 0x03, 0x00, 0x00, 0x7b, 0x71, 0xad, 0xbe, 0x34, 0x3e, 0xb0, 0x3a,
  0x82, 0x4f, 0xd1, 0xbe, 0xb4, 0x32, 0xa8, 0xbe, 0x54, 0x9f, 0x9d, 0x3e,
  0x42, 0xb1, 0xfa, 0x3e, 0xcf, 0x98, 0x1d, 0xbe, 0x1e, 0xf9, 0xf0, 0xbe,
  0x40, 0x9f, 0x05, 0xbd, 0x06, 0x90, 0xc2, 0xbc, 0xb7, 0xa8, 0xb7, 0x3d,
  0x03, 0xf4, 0x5e, 0x3e, 0xec, 0x96, 0x05, 0xbe, 0xfc, 0x6f, 0xe6, 0xbe,
  0x15, 0x07, 0x9a, 0x3e, 0xd3, 0xb6, 0x5f, 0xbe, 0x7d, 0xb9, 0xa0, 0xbe,
  0xd7, 0xa4, 0x01, 0xbd, 0xec, 0x49, 0x06, 0x3f, 0x7d, 0x91, 0x5a, 0x3e,
  0x9f, 0xc7, 0xa0, 0xbe, 0x93, 0xd3, 0x8e, 0x3e, 0x4f, 0xd5, 0xc0, 0x3e,
  0x63, 0x68, 0x1d, 0xbd, 0xba, 0x71, 0x49, 0xbe, 0xe6, 0x8c, 0x83, 0x3d,
  0x1f, 0x47, 0xd2, 0xbe, 0xa6, 0xda, 0x4d, 0xbe, 0xf3, 0x3b, 0x1d, 0xbe,
  0xf5, 0x88, 0xd0, 0x3e, 0xbb, 0xcb, 0xaf, 0xbc, 0xfd, 0x11, 0xf5, 0xbe,
  0xe6, 0x52, 0x07, 0xbd, 0x9e, 0xec, 0xa8, 0xbe, 0x12, 0xb1, 0x08, 0x3e,
  0xcc, 0xc3, 0xd1, 0xbe, 0x3d, 0x11, 0xa2, 0x3e, 0x0a, 0x73, 0x1e, 0xbe,
  0xfb, 0x03, 0xe6, 0xbe, 0xa5, 0x61, 0x3f, 0x3e, 0x10, 0xf3, 0xa0, 0xbe,
  0x8a, 0x5f, 0x3b, 0x3e, 0x55, 0x11, 0x99, 0xbe, 0x92, 0x07, 0x97, 0x3e,
  0x81, 0x5e, 0x94, 0x3e, 0x64, 0xea, 0xe6, 0x3e, 0x5d, 0xc1, 0xdb, 0x3d,
  0xa7, 0x3a, 0x12, 0xbe, 0x36, 0x2d, 0xa7, 0xbe, 0x14, 0xf4, 0x92, 0xbe,
  0xdc, 0xa8, 0x02, 0xbf, 0x40, 0xb0, 0xc2, 0x3c, 0x45, 0x78, 0x74, 0xbe,
  0xae, 0x5d, 0xfd, 0x3e, 0x24, 0x6c, 0x92, 0x3e, 0x27, 0x9d, 0xa9, 0x3e,
  0xac, 0xe4, 0x11, 0xbe, 0xd4, 0x60, 0xa9, 0x3e, 0xcc, 0x20, 0x10, 0x3e,
  0x90, 0x36, 0x3c, 0x3e, 0x1f, 0x7b, 0x79, 0xbc, 0x80, 0xa1, 0xb9, 0x3e,
  0x8b, 0x1f, 0x98, 0x3e, 0x21, 0xa4, 0xe2, 0x3d, 0xa3, 0xae, 0xd5, 0x3e,
  0xfd, 0xbf, 0x8f, 0x3e, 0xb8, 0x50, 0xa8, 0x3e, 0xa7, 0xca, 0xce, 0xbe,
  0x23, 0x7f, 0x4b, 0xbe, 0x97, 0x92, 0xbb, 0xbe, 0x19, 0x1b, 0xa3, 0xbe,
  0x67, 0x12, 0x67, 0xbe, 0x88, 0xd6, 0xb9, 0x3d, 0x9d, 0xc3, 0x24, 0xbe,
  0x3f, 0xe7, 0x1e, 0xbd, 0x08, 0x17, 0x69, 0xbd, 0x75, 0x4d, 0xdc, 0x3e,
  0x93, 0x91, 0x11, 0x3e, 0x04, 0x89, 0x95, 0xbe, 0x12, 0x4d, 0x5c, 0x3e,
  0xbd, 0xf4, 0x56, 0xbe, 0x7f, 0x6f, 0xa1, 0xbe, 0x76, 0x83, 0x22, 0xbe,
  0x7d, 0x0a, 0x73, 0xbe, 0x49, 0xce, 0x72, 0x3e, 0x7e, 0x1f, 0xaa, 0x3e,
  0x46, 0x13, 0xe5, 0xbc, 0xa4, 0xda, 0x28, 0xbe, 0xd2, 0xe6, 0x40, 0x3d,
  0xcf, 0x19, 0x51, 0xbe, 0xa8, 0xb8, 0x7f, 0x3e, 0x51, 0xd4, 0x98, 0x3b,
  0x2d, 0xa0, 0x30, 0x3e, 0xfc, 0x72, 0x45, 0x3e, 0x5c, 0xa1, 0x92, 0xbe,
  0xbb, 0xab, 0xfb, 0x3e, 0x60, 0x00, 0x9b, 0xbd, 0xae, 0x5b, 0xdb, 0xbe,
  0x61, 0x22, 0x65, 0xbe, 0xd9, 0xcd, 0x8d, 0x3d, 0xad, 0x79, 0xe0, 0x3e,
  0x61, 0x81, 0xa3, 0xbe, 0xbe, 0x2e, 0xdc, 0xbd, 0x57, 0x61, 0xa5, 0xbc,
  0x2e, 0xb4, 0x24, 0x3e, 0xea, 0x9d, 0xca, 0xbe, 0x88, 0xc8, 0x70, 0x3c,
  0x65, 0x46, 0x5a, 0x3d, 0x88, 0x80, 0x84, 0xbe, 0xa0, 0x27, 0xdf, 0x3e,
  0xcc, 0x60, 0x8a, 0x3e, 0xd5, 0xf3, 0xf0, 0x3e, 0x9f, 0x91, 0x2f, 0x3f,
  0xbf, 0x4f, 0x45, 0xbe, 0xff, 0x79, 0xfd, 0x3e, 0x2d, 0x42, 0xf1, 0x3e,
  0x90, 0x59, 0x96, 0xbd, 0xcf, 0xab, 0x27, 0x3e, 0x5c, 0xd2, 0xd9, 0x3e,
  0x97, 0x2c, 0x0b, 0x3e, 0x4e, 0x34, 0x6f, 0xbe, 0xf9, 0xe4, 0xd1, 0xbe,
  0x22, 0xd2, 0x63, 0xbe, 0x2c, 0xf9, 0xd7, 0x3c, 0xa7, 0x0b, 0xe1, 0x3e,
  0xf3, 0x48, 0x5c, 0x3e, 0x13, 0xae, 0xae, 0x3e, 0x20, 0x6b, 0x84, 0x3e,
  0xa7, 0x8d, 0xf8, 0xbe, 0x6e, 0xf9, 0x70, 0xbd, 0xee, 0x84, 0xb3, 0xbe,
  0x40, 0x93, 0x37, 0xbe, 0x7e, 0xba, 0x23, 0x3e, 0x9f, 0x4f, 0xb2, 0x3e,
  0x94, 0x60, 0x97, 0xbe, 0x7c, 0x62, 0xa4, 0x3e, 0x8b, 0x0b, 0x2c, 0x3e,
  0x69, 0xaa, 0x0b, 0x3e, 0xeb, 0x47, 0x6a, 0x3e, 0x94, 0xac, 0x94, 0x3e,
  0x51, 0xa8, 0xa7, 0xbe, 0x76, 0x69, 0xcf, 0x3d, 0xb6, 0x2e, 0x78, 0x3e,
  0x1f, 0xdb, 0x99, 0xbe, 0x7c, 0x08, 0xc8, 0xbe, 0xff, 0x7d, 0x55, 0xbe,
  0x75, 0xb9, 0x2e, 0x3b, 0xea, 0xda, 0xb6, 0x3e, 0x7b, 0xe0, 0xad, 0x3e,
  0xbb, 0x80, 0xf8, 0x3d, 0xf2, 0x80, 0xa2, 0xbc, 0x5d, 0xa7, 0x99, 0xbe,
  0x76, 0x5c, 0x70, 0x3e, 0x12, 0x39, 0x99, 0xbe, 0x2c, 0x60, 0x95, 0xbe,
  0x23, 0x8b, 0xf1, 0xbe, 0x2d, 0x0c, 0xa5, 0x3d, 0xdb, 0x27, 0xd2, 0xbe,
  0x52, 0xe9, 0x4e, 0x3e, 0x7a, 0xe2, 0x34, 0xbd, 0x5b, 0x63, 0xc1, 0x3e,
  0xba, 0xe6, 0x4f, 0x3e, 0x3d, 0xff, 0xcb, 0xbe, 0x26, 0x7e, 0x77, 0xbe,
  0x2a, 0xf3, 0x25, 0xbe, 0xee, 0x31, 0xdf, 0xbe, 0x21, 0x86, 0x7b, 0xbe,
  0xa0, 0x82, 0xb5, 0x3e, 0xae, 0x66, 0xc3, 0x3e, 0xbc, 0xe4, 0xcc, 0xbe,
  0xb6, 0x51, 0x5b, 0x3e, 0xa5, 0x58, 0xd9, 0xbe, 0xd9, 0x51, 0xa2, 0xbe,
  0xb9, 0x10, 0xc1, 0xbd, 0x3c, 0x03, 0xb0, 0xbe, 0xa1, 0xdf, 0x81, 0xbe,
  0x39, 0x68, 0xda, 0x3d, 0xc9, 0xcc, 0x87, 0x3c, 0x67, 0x46, 0x5f, 0x3d,
  0x7d, 0xd1, 0x7f, 0xbe, 0x7c, 0x44, 0x31, 0xbe, 0x61, 0x8b, 0x2d, 0xbe,
  0xd1, 0x2d, 0xc7, 0xbd, 0xfb, 0x18, 0x18, 0xbe, 0x1c, 0x5c, 0xec, 0x3e,
  0x5c, 0xbc, 0x74, 0xbe, 0x92, 0xd5, 0xc0, 0x3d, 0x0e, 0x89, 0x36, 0xbe,
  0x60, 0xce, 0x84, 0x3d, 0xa4, 0x66, 0xbe, 0x3d, 0xb3, 0x34, 0x3b, 0x3e,
  0xc2, 0xf4, 0x2f, 0x3e, 0x4b, 0x91, 0x29, 0xbd, 0xa8, 0x52, 0x02, 0x3f,
  0xf9, 0x5c, 0xf4, 0xbe, 0xa2, 0xec, 0x02, 0xbe, 0xf2, 0xdb, 0xe7, 0x3e,
  0x79, 0x2e, 0x66, 0xbe, 0x77, 0xfc, 0x48, 0xbd, 0x93, 0x0c, 0x9b, 0x3e,
  0x96, 0xf1, 0xff, 0xff, 0x04, 0x00, 0x00, 0x00, 0x20, 0x0d, 0x00, 0x00,
  0xd3, 0x1c, 0x87, 0xbe, 0x73, 0x35, 0x95, 0xbe, 0x06, 0x69, 0x9b, 0xbe,
  0xff, 0x57, 0x83, 0x3e, 0x0a, 0x42, 0x0f, 0xbe, 0x1c, 0xf9, 0x4f, 0x3e,
  0xd8, 0x85, 0x53, 0x3e, 0xdc, 0x80, 0x70, 0xbe, 0x22, 0x5a, 0x3d, 0xbc,
  0x34, 0xfd, 0xc7, 0xbe, 0x4f, 0x00, 0x84, 0xbe, 0x84, 0x05, 0x63, 0xbe,
  0x64, 0x7e, 0x9c, 0x3c, 0xc9, 0xd5, 0xc8, 0x3d, 0x62, 0xb4, 0xc5, 0xbd,
  0xf6, 0x9d, 0xf2, 0x3b, 0xe3, 0x72, 0x1a, 0xbe, 0xb2, 0x92, 0xa4, 0x3d,
  0xb7, 0x87, 0x7b, 0x3d, 0xe8, 0x9a, 0x86, 0x3e, 0xf6, 0xca, 0x42, 0x3e,
  0x9a, 0xc8, 0x65, 0x3e, 0x45, 0x4e, 0x8d, 0xbd, 0x1d, 0xd6, 0x7a, 0x3e,
  0xa8, 0x2e, 0x86, 0x3e, 0x9d, 0x2e, 0x5d, 0xbe, 0xdb, 0xb5, 0x5e, 0x3e,
  0xfa, 0x37, 0xc4, 0x3e, 0x81, 0x64, 0x7f, 0x3e, 0xb3, 0x99, 0x4f, 0x3d,
  0x92, 0xc3, 0x61, 0x3e, 0x2b, 0xf7, 0x0c, 0x3e, 0x45, 0xaf, 0x05, 0x3e,
  0x39, 0xff, 0x7f, 0xbe, 0xee, 0xb0, 0x65, 0xbe, 0xc8, 0x37, 0xae, 0x3d,
  0x73, 0x7c, 0xc8, 0x3e, 0xa3, 0xc5, 0x42, 0xbd, 0xf8, 0x96, 0x2c, 0xbe,
  0x0c, 0x6b, 0x19, 0xbd, 0x53, 0x5c, 0xb3, 0x3e, 0xa5, 0x79, 0x47, 0xbe,
  0x1b, 0xab, 0x98, 0x3e, 0x04, 0x2d, 0x72, 0xbe, 0xfc, 0x99, 0xe2, 0xbc,
  0x14, 0x5a, 0x85, 0xbe, 0x07, 0x8a, 0x8d, 0xbd, 0xa4, 0x0a, 0x8e, 0x3d,
  0x3b, 0x1a, 0x81, 0xbd, 0x69, 0x99, 0xb8, 0x3e, 0xdf, 0x4d, 0x4a, 0xbe,
  0x1d, 0xa9, 0x91, 0xbd, 0xbe, 0x90, 0x9b, 0x3e, 0x2d, 0xd5, 0xec, 0xbd,
  0xde, 0xff, 0xa9, 0xbd, 0x31, 0x2a, 0x8a, 0x3e, 0xe8, 0x58, 0x2e, 0x3c,
  0x5a, 0x0b, 0x30, 0x3c, 0x11, 0x3c, 0xb7, 0x3e, 0x79, 0x7c, 0x05, 0xbe,
  0x0c, 0x07, 0x41, 0xbe, 0x9b, 0x6a, 0x75, 0xbe, 0x4f, 0xab, 0x0d, 0x3d,
  0x11, 0xcb, 0x7b, 0xbe, 0xb4, 0x25, 0xb8, 0xbd, 0x5d, 0xe1, 0x82, 0xbd,
  0x5c, 0xc5, 0xc2, 0x3d, 0x16, 0x4c, 0xcf, 0xbd, 0xe6, 0xee, 0x88, 0xbe,
  0xc8, 0x3f, 0x75, 0x3d, 0xa6, 0xaf, 0x64, 0x3e, 0x35, 0x52, 0x91, 0x3d,
  0x02, 0xc5, 0xc3, 0x3d, 0x0c, 0xf3, 0x78, 0xbd, 0x8b, 0x38, 0x97, 0x3e,
  0x66, 0x07, 0xae, 0x3a, 0x80, 0x6f, 0x72, 0x3e, 0x14, 0xef, 0x81, 0x3e,
  0x5c, 0x3c, 0x40, 0xbe, 0xb4, 0x3b, 0x95, 0x3e, 0x22, 0x12, 0x06, 0xbe,
  0x00, 0x9e, 0x37, 0xbd, 0xbc, 0x82, 0xb4, 0x3c, 0xf7, 0xdd, 0x09, 0x3e,
  0xb5, 0x30, 0x3a, 0x3e, 0xd8, 0x4b, 0x57, 0x3e, 0x97, 0xbd, 0x49, 0x3e,
  0x11, 0x02, 0xd8, 0x3d, 0xb4, 0xca, 0x10, 0xbe, 0x56, 0x25, 0x86, 0xbe,
  0x2a, 0xbf, 0x1e, 0xbe, 0x08, 0x0c, 0x80, 0xbe, 0x3e, 0xa9, 0x07, 0x3e,
  0x69, 0x52, 0xef, 0x3d, 0x68, 0xc1, 0xc0, 0x3e, 0x02, 0xab, 0x30, 0xbe,
  0xfc, 0xc8, 0x9c, 0x3e, 0xb9, 0x07, 0x81, 0xbd, 0x81, 0xe4, 0x28, 0xbe,
  0x6f, 0x20, 0x98, 0x3c, 0x27, 0x3b, 0xa0, 0x3e, 0xab, 0x3e, 0x15, 0xbe,
  0x91, 0x58, 0xa6, 0xbd, 0x31, 0x81, 0x55, 0x3c, 0x62, 0xd2, 0x63, 0xbe,
  0x89, 0x30, 0x45, 0x3d, 0x95, 0xa7, 0x7a, 0xbe, 0x15, 0xe5, 0x16, 0x3e,
  0xee, 0x80, 0x67, 0xbe, 0x44, 0xa5, 0xdf, 0xbd, 0x3c, 0xf5, 0x94, 0xbe,
  0xd3, 0x55, 0x88, 0x3e, 0x5f, 0x75, 0x2a, 0xbc, 0x2d, 0x4d, 0xcd, 0x3d,
  0x0a, 0x77, 0x50, 0x3e, 0x29, 0x3f, 0x8d, 0xbe, 0x8a, 0xd6, 0x5e, 0x3a,
  0xd2, 0xa6, 0x83, 0x3e, 0x81, 0x49, 0x74, 0x3e, 0x9a, 0x6e, 0xa1, 0x3e,
  0xd9, 0x79, 0x34, 0xbe, 0x59, 0x1c, 0x35, 0x3e, 0xca, 0x1c, 0x29, 0x3c,
  0xaa, 0x6e, 0x3e, 0xbe, 0x43, 0xf1, 0xa1, 0x3e, 0x77, 0x77, 0x1c, 0xbe,
  0xcb, 0x54, 0xae, 0xbe, 0xaf, 0x55, 0x9c, 0xbe, 0x13, 0x8f, 0xb2, 0xbd,
  0x8b, 0x32, 0x52, 0x3e, 0x3a, 0x60, 0x82, 0x3b, 0xd0, 0x9a, 0x91, 0xbc,
  0xec, 0xcf, 0x63, 0xbe, 0x10, 0x73, 0x99, 0xbe, 0xf8, 0xe8, 0x62, 0xbe,
  0x47, 0xae, 0x88, 0xbe, 0xf3, 0x35, 0x0c, 0x3d, 0x14, 0xfb, 0x6f, 0x3e,
  0xe9, 0x6e, 0x02, 0xbe, 0x67, 0x5f, 0x83, 0xbe, 0x60, 0x0f, 0xb3, 0x3e,
  0x9f, 0x28, 0x34, 0x3e, 0xf5, 0x8a, 0x51, 0xbe, 0xe9, 0xc2, 0x48, 0xbe,
  0x0e, 0xb9, 0x9e, 0x3d, 0x12, 0x79, 0x96, 0x3e, 0xa9, 0xd5, 0x50, 0x3e,
  0x1b, 0x19, 0x72, 0x3e, 0x1d, 0xdd, 0x85, 0xbe, 0xe9, 0x74, 0xa9, 0x3e,
  0x5a, 0x2c, 0x98, 0xbd, 0xa0, 0x9f, 0x5c, 0xbd, 0x41, 0x4b, 0x42, 0xbe,
  0x89, 0x78, 0xd4, 0x3d, 0x64, 0x9d, 0xae, 0x3d, 0x82, 0xd7, 0x84, 0xbd,
  0xde, 0x41, 0x66, 0x3e, 0x60, 0x9e, 0x94, 0x3d, 0x8f, 0xd3, 0xa4, 0x3e,
  0xa2, 0xc2, 0x12, 0x3e, 0x83, 0xc8, 0x69, 0x3e, 0xc6, 0x5c, 0x26, 0xbe,
  0xcf, 0x0c, 0x7b, 0xbe, 0xb8, 0x3c, 0xa0, 0x3d, 0x2f, 0x50, 0x08, 0xbe,
  0x55, 0x18, 0x1b, 0xbc, 0x56, 0x0e, 0x8b, 0x3e, 0x93, 0x38, 0x6b, 0x3e,
  0x7d, 0x98, 0xfd, 0x3d, 0x2f, 0x5b, 0x0c, 0x3e, 0x11, 0x7b, 0x90, 0x3e,
  0x21, 0x59, 0xaf, 0x3e, 0x5b, 0x54, 0x42, 0xbd, 0x4c, 0xd6, 0x71, 0xbe,
  0x45, 0x70, 0x2a, 0xbe, 0x63, 0x3b, 0x82, 0x3d, 0x05, 0x57, 0xc4, 0xbd,
  0xa8, 0x75, 0x8e, 0x3e, 0x27, 0xfb, 0x1b, 0x3e, 0x30, 0xd2, 0xe4, 0xbc,
  0x39, 0xdd, 0x2a, 0x3d, 0xcb, 0x95, 0x85, 0xbe, 0x6f, 0x0a, 0x89, 0xbe,
  0x1d, 0x77, 0x8a, 0xbe, 0xf7, 0xaf, 0x8f, 0xbd, 0x66, 0xd4, 0x4b, 0x3e,
  0x18, 0xbb, 0x90, 0xbd, 0x98, 0x69, 0xae, 0xbd, 0x10, 0xc4, 0x41, 0xbd,
  0x13, 0x0f, 0x05, 0xbe, 0x35, 0x2e, 0x24, 0x3e, 0x68, 0x08, 0x08, 0x3e,
  0xd5, 0x2f, 0x2c, 0x3e, 0x02, 0x54, 0x78, 0x3e, 0xf5, 0x44, 0x8b, 0xbd,
  0xa6, 0xba, 0x8d, 0xbd, 0x28, 0xaa, 0x66, 0xbe, 0x55, 0x3c, 0x20, 0x3e,
  0x0b, 0xc2, 0xf9, 0x3d, 0x3d, 0x13, 0x3a, 0x3e, 0x74, 0x05, 0x9f, 0x3e,
  0xd3, 0xf5, 0x31, 0x3e, 0xa1, 0xa4, 0x88, 0xbe, 0x79, 0x59, 0xf2, 0x3d,
  0x02, 0x26, 0x06, 0xbe, 0xe8, 0xd1, 0xfc, 0x3d, 0xb7, 0x61, 0x18, 0x3e,
  0xb8, 0x1d, 0x15, 0x3e, 0x5a, 0xa8, 0xad, 0xbd, 0x12, 0x62, 0x91, 0x3d,
  0x59, 0xf2, 0xa1, 0xbd, 0xbe, 0xdf, 0x44, 0x3e, 0xee, 0x63, 0x2c, 0x3e,
  0x8f, 0x84, 0x8b, 0x3b, 0xc7, 0xfd, 0x86, 0x3e, 0xc2, 0xe4, 0x4b, 0xbe,
  0x19, 0x81, 0xae, 0xbe, 0x73, 0xa8, 0x7b, 0xbe, 0x3e, 0xac, 0x1d, 0xbe,
  0x54, 0xac, 0xfa, 0x3d, 0x17, 0x2e, 0x47, 0xbe, 0x10, 0x73, 0xc3, 0x3e,
  0xd8, 0xb3, 0xdc, 0x3d, 0xca, 0x97, 0x03, 0xbd, 0xda, 0xb8, 0x09, 0xbe,
  0x38, 0x78, 0x7e, 0xbe, 0x33, 0x82, 0xd4, 0xbd, 0x05, 0x10, 0x52, 0x3c,
  0x86, 0xcb, 0x15, 0x3e, 0x63, 0x7e, 0x43, 0x3e, 0xa2, 0xdc, 0xa4, 0xbd,
  0x18, 0xd3, 0x28, 0xbd, 0x9b, 0xe1, 0x85, 0xbe, 0xca, 0xec, 0xcf, 0x3d,
  0xa7, 0x20, 0x2b, 0xbe, 0x57, 0x85, 0x83, 0xbd, 0x77, 0xde, 0xcb, 0x3b,
  0xa8, 0x11, 0x92, 0xbe, 0xad, 0x46, 0xc3, 0x3e, 0xc3, 0x1c, 0x0b, 0xbd,
  0xd6, 0xaa, 0xe0, 0x3d, 0x60, 0x90, 0x57, 0x3e, 0x21, 0x39, 0x45, 0xbe,
  0x35, 0xc1, 0x0a, 0x3d, 0xf0, 0x0c, 0x9f, 0xbe, 0x9d, 0x0c, 0x50, 0x3e,
  0x79, 0xe0, 0x2d, 0x3e, 0xe3, 0x2b, 0xc9, 0x3e, 0xe3, 0x86, 0xb2, 0x3e,
  0xa5, 0xae, 0x4b, 0xbd, 0x47, 0x5a, 0x84, 0xbe, 0x33, 0xa3, 0x93, 0x3e,
  0x06, 0xcb, 0x24, 0xbe, 0x64, 0x35, 0x16, 0x3e, 0xa5, 0x2b, 0x9c, 0x3c,
  0x1d, 0xcd, 0x2d, 0x3e, 0x87, 0x63, 0x18, 0xbe, 0x9c, 0xef, 0xb9, 0xbe,
  0x4b, 0x24, 0x0c, 0x3e, 0x45, 0x05, 0x09, 0xbe, 0xb5, 0xdc, 0x5b, 0x3e,
  0x17, 0xd1, 0x83, 0xbe, 0x4d, 0xd3, 0x86, 0xbe, 0x72, 0x06, 0x8c, 0x3e,
  0x5e, 0x4f, 0x0f, 0x3e, 0x71, 0x69, 0x36, 0x3e, 0xe9, 0xf6, 0x64, 0x3e,
  0x2e, 0x43, 0x3b, 0xbe, 0x62, 0xfd, 0x1f, 0x3e, 0xfe, 0x14, 0x8a, 0x3e,
  0x62, 0x20, 0x95, 0x3e, 0xd9, 0x19, 0x1f, 0x3e, 0x7d, 0x26, 0xe5, 0xbd,
  0x6a, 0x07, 0xf5, 0x3d, 0x0e, 0x7a, 0x3d, 0xbd, 0x9f, 0x29, 0x72, 0xbe,
  0xfe, 0x65, 0x12, 0xbe, 0xbd, 0x3c, 0x69, 0xbc, 0xf0, 0x6e, 0x37, 0xbe,
  0x84, 0x71, 0x1c, 0xbe, 0xac, 0x20, 0x88, 0x3d, 0xc1, 0xb0, 0xb2, 0xbe,
  0x07, 0x84, 0x5d, 0xbd, 0xc2, 0x45, 0x96, 0x3d, 0x87, 0x9c, 0x7b, 0x3e,
  0x56, 0x96, 0x91, 0xbb, 0x3e, 0xec, 0xf5, 0x3c, 0xb0, 0x2b, 0x9c, 0x3d,
  0x40, 0x90, 0x41, 0xbd, 0xa5, 0xe3, 0x7a, 0xbe, 0x16, 0x0d, 0x3a, 0xbe,
  0xf4, 0x61, 0x2d, 0x3e, 0xa6, 0x10, 0x87, 0xbe, 0xe8, 0x39, 0x0d, 0xbe,
  0xc8, 0x3a, 0x59, 0x3e, 0xc3, 0x93, 0x9b, 0xbe, 0x87, 0xe3, 0x84, 0xbe,
  0xa9, 0xdb, 0x39, 0x3e, 0x86, 0x3d, 0x37, 0xbd, 0xcf, 0xec, 0x90, 0xbe,
  0x87, 0xc4, 0x6a, 0x3e, 0x5d, 0x18, 0x82, 0xbe, 0x78, 0x5a, 0x50, 0x3e,
  0x62, 0xbd, 0x0c, 0x3e, 0xbb, 0x45, 0x82, 0xbe, 0x22, 0x5a, 0x3b, 0x3d,
  0x77, 0x81, 0xe5, 0xbc, 0x3c, 0x92, 0x58, 0xbe, 0x0b, 0x3f, 0x1f, 0xbe,
  0x30, 0x9c, 0x14, 0xbd, 0xd6, 0xb4, 0x21, 0x3e, 0xb6, 0xaa, 0x40, 0xbe,
  0x4d, 0x40, 0x08, 0xbd, 0x55, 0x3b, 0x8c, 0x3e, 0xe2, 0x44, 0x2c, 0x3e,
  0x85, 0xa8, 0x65, 0xbe, 0x02, 0xb3, 0x9b, 0xbe, 0x3d, 0xe0, 0x30, 0x3d,
  0x4e, 0x29, 0xce, 0xbd, 0x8b, 0x3f, 0x8b, 0xbe, 0x9b, 0x70, 0xd7, 0x3d,
  0x0c, 0xf8, 0xc5, 0x3d, 0xa1, 0x5a, 0x3b, 0xbe, 0x34, 0x7a, 0x04, 0xbe,
  0x52, 0x6d, 0xfd, 0xbd, 0xf3, 0x2f, 0xc9, 0xbd, 0xa8, 0x7a, 0x9a, 0x3d,
  0xdd, 0x1e, 0x50, 0x3d, 0x30, 0xbc, 0x67, 0x3e, 0x3a, 0x96, 0x8a, 0x3e,
  0xb2, 0x02, 0xdc, 0x3d, 0xef, 0xf1, 0x61, 0xbe, 0x1e, 0xd9, 0xf9, 0xbd,
  0xee, 0x58, 0x75, 0x3e, 0x8a, 0xff, 0x00, 0xbe, 0x37, 0xb4, 0xb7, 0xbe,
  0xee, 0x3a, 0x81, 0x3e, 0xc1, 0x10, 0xf2, 0x3d, 0xfe, 0x90, 0x23, 0xbe,
  0x11, 0xc8, 0xa1, 0x3e, 0x95, 0xf1, 0x36, 0xbe, 0x0d, 0x04, 0x10, 0xbe,
  0x1b, 0x0a, 0xb1, 0x3d, 0x48, 0x8c, 0xb6, 0xbd, 0x6b, 0xc1, 0xa7, 0x3d,
  0xfa, 0xa6, 0x6e, 0xbe, 0x92, 0xb2, 0xb2, 0xbc, 0xe6, 0x58, 0x6c, 0x3e,
  0xd4, 0x5a, 0x2b, 0x3e, 0xbd, 0x1e, 0xfa, 0xbc, 0x82, 0x45, 0x39, 0x3e,
  0xbb, 0xa2, 0x88, 0xbe, 0x50, 0x37, 0xeb, 0xbb, 0x19, 0xea, 0x23, 0x3e,
  0xb5, 0x64, 0x8a, 0x3e, 0x3f, 0x2e, 0x7e, 0x3e, 0x29, 0x13, 0x40, 0xbe,
  0x38, 0x2c, 0x0e, 0x3e, 0x42, 0x3c, 0x3e, 0x3d, 0x13, 0x6a, 0x23, 0x3e,
  0x2e, 0x5c, 0x99, 0x3e, 0xa1, 0xeb, 0x39, 0xbe, 0xa9, 0x15, 0x0e, 0x3e,
  0xc8, 0x69, 0x41, 0x3e, 0xc5, 0x19, 0x36, 0xbe, 0xf9, 0xd1, 0x8d, 0xbd,
  0xa8, 0x3f, 0x32, 0x3e, 0x78, 0x04, 0x48, 0xbd, 0x30, 0xb3, 0x26, 0xbe,
  0x50, 0x2a, 0x2a, 0xbd, 0xd2, 0x75, 0x93, 0xbe, 0x2b, 0xad, 0x8d, 0xbe,
  0x0f, 0x88, 0x06, 0x3e, 0xb6, 0xd1, 0xa1, 0xbd, 0x35, 0x48, 0x39, 0xbe,
  0x3a, 0x1e, 0xdf, 0xbd, 0xf0, 0x61, 0x35, 0xbd, 0x54, 0x81, 0x39, 0x3e,
  0x57, 0x43, 0xa8, 0x3e, 0x1e, 0xbf, 0xbd, 0x3d, 0xc0, 0x86, 0x0b, 0xbe,
  0x22, 0x1d, 0x35, 0xbe, 0x16, 0xe9, 0xcc, 0xbe, 0xc6, 0x9d, 0x64, 0xbe,
  0xdf, 0x39, 0xda, 0x3c, 0x0d, 0xfd, 0x5d, 0xbc, 0xd0, 0x29, 0x51, 0xbe,
  0xe6, 0xe2, 0x19, 0x3c, 0xaa, 0x5b, 0x61, 0xbd, 0x79, 0x20, 0x78, 0x3e,
  0x47, 0xa4, 0xc6, 0x3d, 0xa4, 0x1a, 0x99, 0x3e, 0x24, 0xcc, 0x53, 0xbe,
  0xe5, 0xd2, 0xc1, 0x3e, 0x20, 0x2a, 0x99, 0x3e, 0x6b, 0x4d, 0xb6, 0x3d,
  0xe9, 0x78, 0x04, 0xbb, 0x74, 0x5f, 0x8d, 0xbd, 0x01, 0x1d, 0xf1, 0xbd,
  0x54, 0xb9, 0x4e, 0x3e, 0x7b, 0xe7, 0xaa, 0xbd, 0xb2, 0xad, 0x91, 0xbe,
  0x6e, 0xbc, 0xcc, 0xbc, 0xe8, 0xfe, 0x3d, 0xbe, 0xe8, 0x18, 0x0a, 0xbe,
  0xf6, 0xaf, 0x11, 0xbe, 0x5c, 0xe8, 0xbc, 0xbc, 0x50, 0x87, 0x39, 0x3e,
  0x3c, 0x08, 0x35, 0xbe, 0x03, 0x12, 0xc4, 0xbe, 0xe9, 0x53, 0x6f, 0xbd,
  0x16, 0xfd, 0x18, 0xbe, 0xb9, 0x9b, 0x95, 0x3e, 0x79, 0xe6, 0xcd, 0xbd,
  0xb3, 0xa9, 0x97, 0x3e, 0x80, 0x8f, 0x5b, 0xbd, 0x59, 0x4a, 0x14, 0x3e,
  0xa5, 0x57, 0xa6, 0xbe, 0x17, 0xfb, 0xdb, 0x3d, 0xcc, 0x25, 0x86, 0xbd,
  0x82, 0x3b, 0x89, 0x3e, 0x09, 0x4e, 0x75, 0x3e, 0x66, 0x76, 0x9d, 0xbd,
  0xb8, 0x6a, 0xa4, 0xbe, 0x75, 0xff, 0x4f, 0xbe, 0x10, 0x77, 0xa3, 0x3e,
  0x84, 0x46, 0x27, 0xbd, 0xe0, 0xcc, 0xe8, 0x3d, 0x87, 0x43, 0x9d, 0x3e,
  0xb2, 0x82, 0xb2, 0x3d, 0xbb, 0x32, 0x8e, 0xbe, 0xa2, 0x3a, 0x45, 0xbc,
  0x6e, 0xdd, 0xb2, 0xbe, 0xe1, 0xd8, 0xd0, 0xbd, 0x4e, 0xaf, 0x66, 0xbe,
  0x0a, 0x39, 0xb4, 0x3e, 0x58, 0x0d, 0x12, 0xbe, 0xf2, 0x11, 0xb7, 0xbe,
  0x47, 0x55, 0x29, 0x3e, 0x1f, 0x06, 0x81, 0xbd, 0xda, 0x2b, 0x73, 0xbe,
  0x76, 0xb0, 0x63, 0x3e, 0x4c, 0xfd, 0x9d, 0x3e, 0xf8, 0x70, 0x65, 0xbe,
  0x58, 0x99, 0xb9, 0xbd, 0xbb, 0x62, 0x83, 0xbe, 0x45, 0x10, 0x8b, 0x3e,
  0x00, 0x1a, 0x5b, 0x3e, 0x99, 0x28, 0x7b, 0xbd, 0x78, 0xa7, 0x05, 0x3e,
  0x19, 0x59, 0xa7, 0xbe, 0x9e, 0x33, 0x11, 0xbe, 0xd5, 0x55, 0x96, 0xbe,
  0x3f, 0x55, 0x9d, 0xbe, 0x0c, 0x22, 0x15, 0xbd, 0x74, 0x6d, 0xc6, 0xbc,
  0x22, 0x57, 0x97, 0x3e, 0x6e, 0x6e, 0xb9, 0xbd, 0xfa, 0x4c, 0x5c, 0x3e,
  0xeb, 0xc2, 0x61, 0x3e, 0x20, 0xfe, 0x95, 0x3e, 0x51, 0xc3, 0x76, 0x3e,
  0x75, 0xbd, 0x31, 0x3e, 0x30, 0x71, 0xa7, 0xbe, 0x7a, 0x9a, 0x51, 0xbd,
  0x02, 0x07, 0x01, 0xbe, 0x95, 0x84, 0x0c, 0xbd, 0x76, 0xb9, 0x16, 0xbe,
  0x3d, 0x28, 0x1d, 0x3e, 0x6c, 0x16, 0x39, 0xbe, 0x86, 0xe3, 0x9e, 0xbe,
  0xfa, 0x6f, 0xb7, 0x3e, 0x7c, 0x95, 0x03, 0xbe, 0x94, 0xcc, 0x7b, 0xbb,
  0x61, 0x9f, 0x12, 0xbe, 0xc8, 0x7c, 0x95, 0xbd, 0x28, 0xa0, 0x97, 0x3e,
  0x1a, 0x23, 0x86, 0x3e, 0x19, 0x50, 0x69, 0xbe, 0xe5, 0xb5, 0x27, 0xbd,
  0x46, 0x1a, 0x94, 0x3d, 0xf7, 0xf2, 0xe6, 0xbd, 0xdb, 0x3d, 0x46, 0x3d,
  0x5f, 0x23, 0x42, 0x3e, 0xb5, 0x09, 0xaf, 0x3e, 0xb3, 0xbe, 0x5b, 0x3c,
  0x37, 0x2d, 0x67, 0x3e, 0xb7, 0xf8, 0x67, 0x3e, 0xbe, 0x65, 0xd6, 0x3c,
  0x59, 0x02, 0xe4, 0xbe, 0x54, 0x94, 0x34, 0xbc, 0xd5, 0x15, 0x0e, 0x3e,
  0xb9, 0xf0, 0x67, 0xbe, 0x09, 0x37, 0x76, 0x3e, 0x4f, 0x8e, 0x1e, 0x3c,
  0x38, 0xbf, 0xe9, 0xbd, 0x96, 0x47, 0xc5, 0xbb, 0xbd, 0x19, 0x64, 0xbe,
  0xf8, 0x69, 0x76, 0xbd, 0x7b, 0x73, 0x88, 0xbe, 0xee, 0xb4, 0x13, 0xbe,
  0x5b, 0xba, 0xde, 0x3d, 0x2a, 0x03, 0xc2, 0xbe, 0x80, 0x79, 0x3c, 0x3e,
  0xbb, 0xdd, 0x24, 0x3e, 0xd9, 0xcf, 0x88, 0x3e, 0x59, 0x69, 0x93, 0x3d,
  0x28, 0xa8, 0x83, 0xbe, 0xaf, 0x7f, 0x34, 0x3e, 0xe0, 0x52, 0xbe, 0x3d,
  0x4d, 0x6a, 0xcd, 0x3e, 0x25, 0xf5, 0xe9, 0xbd, 0x57, 0x65, 0xef, 0x3d,
  0x1b, 0x53, 0x9d, 0xbd, 0x4f, 0xaa, 0x38, 0xbe, 0xb9, 0x0a, 0x4f, 0xbe,
  0x2e, 0x31, 0x85, 0x3e, 0x1f, 0x2d, 0xb7, 0x3c, 0xb5, 0x58, 0x42, 0x3e,
  0xc2, 0x3d, 0x45, 0x3e, 0x99, 0xbe, 0xa4, 0x3e, 0xaf, 0xc3, 0x01, 0xbe,
  0x2a, 0xa2, 0x9e, 0x3b, 0x1e, 0xb1, 0x4e, 0xbb, 0x99, 0x71, 0x90, 0x3e,
  0x3d, 0x12, 0x57, 0xbe, 0x3b, 0xcf, 0xc8, 0x3e, 0xbb, 0x7d, 0x8c, 0x3c,
  0x98, 0x7e, 0xfb, 0xbd, 0x6d, 0xdc, 0xce, 0xbe, 0x54, 0xb5, 0x4b, 0xbe,
  0x84, 0x7c, 0x8d, 0x3e, 0x60, 0x15, 0xab, 0x3d, 0xca, 0x14, 0xab, 0x3e,
  0xfb, 0xcb, 0xdc, 0xbc, 0xc7, 0x53, 0x59, 0xbe, 0xb5, 0x62, 0x25, 0xbe,
  0x7d, 0x64, 0x32, 0x3d, 0x9c, 0x32, 0x95, 0x3e, 0x97, 0xaf, 0x4a, 0x3e,
  0x1c, 0xed, 0x5d, 0x3d, 0x6a, 0x2f, 0x85, 0xbe, 0xbf, 0xeb, 0xe9, 0xbe,
  0x64, 0x43, 0x0f, 0x3e, 0xe0, 0x18, 0x25, 0x3e, 0x3a, 0xb7, 0x8b, 0xbe,
  0x3b, 0x39, 0x93, 0xbe, 0x09, 0x89, 0xf0, 0x3c, 0x09, 0xff, 0x8a, 0x3e,
  0xf2, 0xb6, 0x88, 0x3e, 0xa7, 0x02, 0x04, 0x3e, 0xc8, 0x9a, 0x9b, 0x3c,
  0x51, 0x6a, 0xa8, 0x3c, 0xcd, 0xdf, 0xca, 0xbe, 0x1a, 0x84, 0x4c, 0xbe,
  0x25, 0x36, 0xd7, 0xbd, 0xbd, 0x75, 0x41, 0xbe, 0x76, 0xb7, 0x42, 0x3e,
  0xa6, 0x11, 0xa3, 0x3c, 0xe6, 0x4b, 0x73, 0xbe, 0xa4, 0x88, 0x49, 0xbe,
  0x03, 0xaa, 0xbb, 0x3b, 0xf2, 0xa8, 0x43, 0x3e, 0x99, 0x79, 0x21, 0xbd,
  0x4c, 0x32, 0x3a, 0x3e, 0x69, 0x3f, 0xca, 0xbe, 0xc8, 0xdc, 0x36, 0x3e,
  0xbb, 0x21, 0x1e, 0xbe, 0xe3, 0x4d, 0x8f, 0xbe, 0x41, 0xaa, 0xc7, 0x3d,
  0x59, 0x8e, 0x37, 0xbe, 0xaf, 0x36, 0x40, 0x3b, 0x7a, 0x02, 0xd9, 0xbd,
  0x40, 0x50, 0xdf, 0x3c, 0xed, 0x12, 0xba, 0x3d, 0x8f, 0x2c, 0x11, 0x3e,
  0xaf, 0x4b, 0x40, 0xbe, 0x1a, 0xe6, 0xf8, 0x3c, 0x98, 0x58, 0xe4, 0xbb,
  0xd1, 0xaa, 0x42, 0x3e, 0xda, 0xf4, 0xf3, 0x3d, 0x96, 0x2e, 0x2c, 0xbd,
  0xd5, 0xc2, 0x74, 0xbd, 0x76, 0xbd, 0x89, 0xbd, 0x7c, 0x9d, 0xaf, 0x3e,
  0x87, 0x30, 0xa7, 0x3d, 0x86, 0x8e, 0x8e, 0x3d, 0x81, 0x52, 0x02, 0x3e,
  0xde, 0xfd, 0x8f, 0x3e, 0xdf, 0xc5, 0xa4, 0x3d, 0xa7, 0x42, 0x76, 0xbd,
  0x67, 0x4a, 0x17, 0xbe, 0x5d, 0x4b, 0xcf, 0xbe, 0x98, 0x1e, 0xc0, 0x3d,
  0x46, 0x96, 0x0e, 0xbe, 0x39, 0x41, 0x6b, 0xbe, 0x5b, 0xce, 0x84, 0x3e,
  0xbd, 0xeb, 0xab, 0xbe, 0xe8, 0xfe, 0x23, 0xbd, 0xb9, 0xcf, 0x61, 0xbd,
  0x80, 0x37, 0xcc, 0x3e, 0x74, 0xff, 0xd2, 0x3d, 0xc1, 0x17, 0x2b, 0xbe,
  0x75, 0xd5, 0x3e, 0xbe, 0x05, 0x2c, 0x8a, 0xbe, 0x88, 0xfc, 0x94, 0xbe,
  0x71, 0x78, 0x2a, 0x3e, 0x6b, 0xed, 0x97, 0x3e, 0xb1, 0x38, 0x01, 0xbe,
  0x55, 0x37, 0x05, 0xbe, 0xa7, 0x78, 0xb3, 0x3e, 0xaf, 0x74, 0x21, 0x3d,
  0xae, 0xba, 0xe4, 0xbe, 0xc2, 0x7b, 0x0d, 0xbd, 0x8d, 0x47, 0x36, 0x3e,
  0x21, 0xd1, 0x88, 0xbe, 0x24, 0xfa, 0x3d, 0xbd, 0xd6, 0x06, 0x62, 0x3e,
  0x63, 0xaf, 0xbf, 0xbe, 0x69, 0xf6, 0xc9, 0xbe, 0x0f, 0x3a, 0x9a, 0xbe,
  0x73, 0xcf, 0xe1, 0xbc, 0x93, 0x50, 0x41, 0x3e, 0x03, 0x83, 0x4d, 0x3d,
  0x3a, 0x07, 0x35, 0xbe, 0x18, 0x9e, 0x44, 0x3e, 0xdf, 0xc7, 0xf1, 0xbd,
  0x99, 0x8b, 0x22, 0xbd, 0x3d, 0xae, 0x9a, 0xbd, 0x84, 0xcd, 0x82, 0xbe,
  0x87, 0x38, 0x9b, 0x3e, 0xde, 0x80, 0x44, 0xbe, 0x14, 0x00, 0x8b, 0x3e,
  0xc5, 0xe3, 0x23, 0x3e, 0xf4, 0x61, 0x55, 0x3e, 0x9c, 0x1e, 0x80, 0x3d,
  0x1b, 0xb2, 0x3f, 0x3d, 0xb7, 0x0b, 0xdc, 0x3c, 0xd4, 0xef, 0xc8, 0x3d,
  0x46, 0x7c, 0x09, 0xbe, 0xcd, 0x9b, 0x82, 0x3e, 0x01, 0x92, 0x52, 0xbd,
  0xcd, 0x8d, 0x2c, 0x3e, 0x77, 0xa1, 0xb7, 0x3e, 0x75, 0x19, 0x36, 0x3e,
  0xe1, 0xcb, 0x3f, 0xbd, 0x67, 0x38, 0x18, 0xbc, 0x54, 0xb5, 0x9d, 0x3d,
  0xfe, 0xd5, 0x7d, 0xbe, 0xd2, 0xd5, 0x82, 0xbe, 0x23, 0xc2, 0x45, 0x3e,
  0x89, 0xbd, 0x44, 0xbe, 0x73, 0x54, 0x91, 0x3e, 0x2a, 0xad, 0x88, 0xbe,
  0xf7, 0x5c, 0x9b, 0xbd, 0xaf, 0x3b, 0xb2, 0xbe, 0x20, 0xb0, 0x82, 0x3e,
  0xf9, 0xa2, 0x12, 0x3e, 0x85, 0x3d, 0x96, 0x3e, 0xce, 0x3b, 0x62, 0x3e,
  0xfb, 0xa5, 0xa5, 0xbe, 0x23, 0xe0, 0xb6, 0x3d, 0xad, 0x18, 0x8c, 0x3e,
  0x0c, 0x43, 0x26, 0xbe, 0x88, 0x72, 0x6f, 0xbe, 0xb3, 0xef, 0x7e, 0x3d,
  0xa9, 0x09, 0x57, 0x3e, 0xd8, 0xae, 0x11, 0xbe, 0x0b, 0xf2, 0x7b, 0x3e,
  0x3c, 0x11, 0xaa, 0x3e, 0x42, 0xbb, 0x4a, 0xbe, 0xd7, 0x8a, 0xb4, 0xbd,
  0x9c, 0x22, 0xed, 0x3d, 0xa2, 0x6b, 0x99, 0xbd, 0x1f, 0xe6, 0x6c, 0xbe,
  0xc3, 0xcc, 0x5b, 0x3e, 0xa8, 0xcd, 0x83, 0x3e, 0xa9, 0x7e, 0xea, 0x3d,
  0x73, 0x25, 0xc8, 0x3d, 0xfd, 0xf0, 0x8a, 0xbe, 0xd4, 0x8d, 0xa9, 0xbe,
  0x47, 0xd6, 0xad, 0xbc, 0x9d, 0x44, 0xe7, 0xbd, 0x98, 0xc9, 0x32, 0x3e,
  0x22, 0xd3, 0xd2, 0xbc, 0xa2, 0xb4, 0x83, 0xbe, 0xe0, 0x76, 0x83, 0xbe,
  0x07, 0x44, 0x0f, 0x3e, 0x6b, 0x14, 0x85, 0x3e, 0xa6, 0x58, 0x59, 0x3d,
  0x59, 0x06, 0x30, 0x3e, 0x5b, 0x6e, 0x95, 0xbe, 0x17, 0x7b, 0xe6, 0x3d,
  0xf3, 0x8d, 0x9a, 0xbe, 0x10, 0xef, 0xba, 0xbe, 0xb4, 0x06, 0x50, 0x3e,
  0x6c, 0x8c, 0x07, 0xbe, 0x2a, 0xe4, 0x2e, 0x3d, 0xa0, 0x91, 0x98, 0x3d,
  0xf9, 0x0a, 0x9f, 0xbd, 0xda, 0x85, 0x76, 0x3d, 0xe9, 0x45, 0xc3, 0xbe,
  0x6f, 0xfe, 0x39, 0xbc, 0x19, 0x40, 0x08, 0x3d, 0x99, 0xc1, 0x1e, 0xbe,
  0x81, 0x77, 0x7c, 0x3c, 0xff, 0xa4, 0x1b, 0xbd, 0x0f, 0x0b, 0x34, 0xbe,
  0x85, 0x2e, 0xeb, 0x3d, 0xd2, 0x65, 0xf1, 0xbc, 0xbd, 0x66, 0x31, 0x3d,
  0x07, 0x03, 0x4b, 0x3b, 0xbc, 0x6f, 0x1e, 0xbe, 0x3e, 0x9e, 0x82, 0xbe,
  0xec, 0xed, 0xcb, 0xbd, 0x35, 0x49, 0x8b, 0x3e, 0xdb, 0xc7, 0xd8, 0x3d,
  0x4d, 0x43, 0x24, 0xbe, 0xf5, 0xae, 0x7c, 0xbe, 0x03, 0x70, 0xd7, 0xbd,
  0xe5, 0xde, 0x99, 0x3e, 0x8a, 0xe4, 0x5a, 0x3d, 0x43, 0x68, 0x7a, 0xbe,
  0x7f, 0x96, 0xac, 0x3c, 0x8f, 0x1f, 0x98, 0xbe, 0x86, 0x58, 0x70, 0x3e,
  0xb8, 0x8c, 0x54, 0x3e, 0x32, 0x5c, 0x34, 0x3e, 0x7e, 0xb6, 0xe0, 0x3d,
  0x80, 0x27, 0x66, 0xbe, 0xeb, 0xa2, 0x89, 0x3e, 0x68, 0xa7, 0x74, 0x3e,
  0xbe, 0x06, 0xb1, 0x3d, 0x58, 0xf0, 0x81, 0x3e, 0xf5, 0xde, 0xaa, 0x3c,
  0xc3, 0x39, 0xa0, 0xbc, 0xca, 0x40, 0x66, 0xbe, 0x5c, 0xc5, 0x1b, 0xbc,
  0xae, 0x44, 0x4d, 0xbe, 0x86, 0x39, 0x73, 0xbe, 0x6e, 0xa3, 0xd8, 0x3d,
  0x9c, 0x73, 0x49, 0xbd, 0xc9, 0x02, 0x8c, 0x3d, 0x27, 0x97, 0x1b, 0xbe,
  0x8a, 0xfc, 0x70, 0xbe, 0x9d, 0xed, 0x10, 0xbd, 0x45, 0x90, 0x2d, 0xbd,
  0x9d, 0x67, 0x3f, 0xbe, 0xed, 0x9c, 0x91, 0x3e, 0x88, 0x08, 0x2b, 0xbd,
  0xbf, 0xde, 0x55, 0x3e, 0x85, 0x9c, 0x41, 0xbe, 0x85, 0x55, 0x30, 0x3e,
  0x70, 0xf3, 0x90, 0xbd, 0x97, 0xe2, 0x08, 0xbe, 0xd5, 0xdf, 0x07, 0x3d,
  0xa1, 0x23, 0x0f, 0x3e, 0x0a, 0x2c, 0xa5, 0x3c, 0x54, 0xf9, 0xf3, 0x3d,
  0xa6, 0x88, 0xc6, 0xbc, 0x1f, 0x2a, 0x45, 0x3e, 0xb8, 0xc7, 0xa8, 0x3e,
  0xb1, 0xfe, 0xa0, 0x3e, 0x51, 0x10, 0xe2, 0x3c, 0x9e, 0x98, 0x08, 0xbe,
  0x37, 0xb7, 0x92, 0x3e, 0xbb, 0xde, 0x21, 0xbe, 0xd2, 0x3e, 0x1b, 0xbe,
  0x25, 0x6a, 0x34, 0xbe, 0x0c, 0xa2, 0xb3, 0xbd, 0xb5, 0x60, 0x21, 0xbe,
  0xdb, 0x18, 0x46, 0x3c, 0xbc, 0xba, 0x56, 0x3e, 0x94, 0x68, 0x21, 0xbe,
  0xac, 0x89, 0xb7, 0xbb, 0xf6, 0xb1, 0x97, 0x3e, 0x7a, 0x6c, 0x10, 0x3e,
  0x63, 0xdf, 0xb2, 0x3e, 0x59, 0xe2, 0x9f, 0x3e, 0x5b, 0x2a, 0x5f, 0x3e,
  0xde, 0x7b, 0x55, 0x3e, 0xa2, 0xa3, 0x68, 0x3d, 0xdb, 0xa8, 0xcb, 0x3d,
  0x4a, 0x94, 0xc3, 0xbe, 0xee, 0x7a, 0xac, 0x3e, 0x71, 0x90, 0x1c, 0xbe,
  0xab, 0x35, 0x11, 0xbe, 0x89, 0xff, 0x8b, 0xbd, 0x6e, 0x7f, 0x1c, 0x3d,
  0xeb, 0xd1, 0xc8, 0x3e, 0x1d, 0x6d, 0x0a, 0xbe, 0xf6, 0x13, 0xba, 0xbe,
  0xfb, 0xf4, 0x36, 0xbe, 0x70, 0xbc, 0x5f, 0x3e, 0xa9, 0x83, 0x8d, 0xbc,
  0x56, 0x3a, 0xca, 0x3d, 0x19, 0x0c, 0x71, 0x3e, 0x6e, 0x20, 0x6e, 0x3e,
  0x5f, 0x6b, 0x39, 0xbe, 0xa6, 0x7c, 0x18, 0x3e, 0x06, 0x75, 0x98, 0x3c,
  0xe4, 0x20, 0x0d, 0x3e, 0xf4, 0x21, 0x82, 0x3e, 0x4b, 0x6a, 0x12, 0x3e,
  0x01, 0xcc, 0x8a, 0x3e, 0x0f, 0x0b, 0x48, 0xbe, 0xd2, 0x6d, 0xa3, 0xbe,
  0xb9, 0x1f, 0x1d, 0x3d, 0x7d, 0xc6, 0x24, 0x3e, 0xa6, 0xc4, 0x67, 0x3e,
  0x10, 0x66, 0x86, 0xbe, 0xed, 0xe8, 0xf2, 0x3c, 0x72, 0x71, 0x71, 0xbe,
  0x96, 0x9a, 0xd7, 0x3d, 0xb0, 0x15, 0x44, 0xbc, 0x5e, 0x5f, 0xa5, 0x3c,
  0xee, 0xd7, 0x8d, 0x3e, 0xfe, 0xee, 0x8c, 0xbc, 0x57, 0x11, 0x81, 0x3d,
  0x70, 0x02, 0x80, 0xbe, 0x32, 0x0a, 0xa1, 0xbd, 0x3f, 0x6b, 0xd3, 0x3d,
  0x42, 0x35, 0x03, 0xbe, 0xf9, 0xe9, 0x22, 0xbe, 0x2d, 0x6a, 0xb4, 0x3d,
  0x2f, 0x23, 0x8c, 0xbe, 0xd0, 0xf7, 0x88, 0xbe, 0xf5, 0x0f, 0x66, 0x3e,
  0x86, 0x28, 0x42, 0xbd, 0x70, 0x82, 0x5d, 0x3d, 0xcc, 0x04, 0x4d, 0x3e,
  0x7b, 0x67, 0x9e, 0xbe, 0xe6, 0xce, 0x9d, 0x3d, 0xca, 0xb7, 0x0a, 0xbe,
  0xfd, 0x75, 0xc5, 0x3d, 0xae, 0xdb, 0x6d, 0x3d, 0xfb, 0x2b, 0x3b, 0x3d,
  0x7c, 0x29, 0x1b, 0xbe, 0x44, 0x8f, 0x8c, 0x3e, 0x02, 0x37, 0x1f, 0x3e,
  0xc2, 0xfe, 0xff, 0xff, 0x04, 0x00, 0x00, 0x00, 0x50, 0x00, 0x00, 0x00,
  0x3c, 0xd4, 0xe9, 0x3d, 0xf5, 0xc9, 0xe6, 0xbb, 0x92, 0x3d, 0x34, 0x3b,
  0x84, 0xf4, 0x6c, 0x3a, 0xa6, 0x61, 0x4c, 0x3d, 0x8d, 0x17, 0x5e, 0x3d,
  0x8f, 0x87, 0x3b, 0xbd, 0x2e, 0xed, 0x37, 0xbd, 0x34, 0x25, 0xb0, 0xbd,
  0x3c, 0xac, 0x32, 0x3e, 0x94, 0xd7, 0xf8, 0x3d, 0xec, 0x45, 0x1c, 0x3e,
  0x79, 0x64, 0x0c, 0x3e, 0x20, 0x15, 0xf3, 0x3a, 0xaa, 0x47, 0x2e, 0x3e,
  0x3f, 0x19, 0x52, 0x3d, 0x18, 0xf1, 0xa2, 0xbd, 0x28, 0x00, 0xd3, 0xbc,
  0x24, 0x1c, 0x05, 0x3e, 0x14, 0xb1, 0x8c, 0x3c, 0x1e, 0xff, 0xff, 0xff,
  0x04, 0x00, 0x00, 0x00, 0x0c, 0x00, 0x00, 0x00, 0x20, 0x0a, 0x87, 0x3d,
  0xc5, 0x1e, 0x48, 0xbe, 0x7b, 0xcb, 0x69, 0x3e, 0x36, 0xff, 0xff, 0xff,
  0x04, 0x00, 0x00, 0x00, 0x28, 0x00, 0x00, 0x00, 0x74, 0x39, 0xba, 0x3d,
  0x10, 0x60, 0xb8, 0x3d, 0x94, 0xdd, 0xa0, 0xbd, 0xd8, 0x6c, 0x65, 0xbd,
  0x4a, 0x91, 0x6e, 0x3d, 0xb1, 0xfd, 0x5a, 0x3e, 0xc2, 0xfd, 0xca, 0xbd,
  0xa4, 0xd6, 0x84, 0xbd, 0x5a, 0xe3, 0x2b, 0xbd, 0x38, 0x0f, 0x72, 0xbd,
  0x5c, 0xfa, 0xff, 0xff, 0x60, 0xfa, 0xff, 0xff, 0x0f, 0x00, 0x00, 0x00,
  0x4d, 0x4c, 0x49, 0x52, 0x20, 0x43, 0x6f, 0x6e, 0x76, 0x65, 0x72, 0x74,
  0x65, 0x64, 0x2e, 0x00, 0x01, 0x00, 0x00, 0x00, 0x14, 0x00, 0x00, 0x00,
  0x00, 0x00, 0x0e, 0x00, 0x18, 0x00, 0x14, 0x00, 0x10, 0x00, 0x0c, 0x00,
  0x08, 0x00, 0x04, 0x00, 0x0e, 0x00, 0x00, 0x00, 0x14, 0x00, 0x00, 0x00,
  0x1c, 0x00, 0x00, 0x00, 0x24, 0x01, 0x00, 0x00, 0x28, 0x01, 0x00, 0x00,
  0x2c, 0x01, 0x00, 0x00, 0x04, 0x00, 0x00, 0x00, 0x6d, 0x61, 0x69, 0x6e,
  0x00, 0x00, 0x00, 0x00, 0x04, 0x00, 0x00, 0x00, 0xcc, 0x00, 0x00, 0x00,
  0x84, 0x00, 0x00, 0x00, 0x50, 0x00, 0x00, 0x00, 0x14, 0x00, 0x00, 0x00,
  0x00, 0x00, 0x0e, 0x00, 0x1a, 0x00, 0x14, 0x00, 0x10, 0x00, 0x0c, 0x00,
  0x0b, 0x00, 0x04, 0x00, 0x0e, 0x00, 0x00, 0x00, 0x1c, 0x00, 0x00, 0x00,
  0x00, 0x00, 0x00, 0x09, 0x1c, 0x00, 0x00, 0x00, 0x20, 0x00, 0x00, 0x00,
  0x01, 0x00, 0x00, 0x00, 0x00, 0x00, 0x06, 0x00, 0x08, 0x00, 0x04, 0x00,
  0x06, 0x00, 0x00, 0x00, 0x00, 0x00, 0x80, 0x3f, 0x01, 0x00, 0x00, 0x00,
  0x0a, 0x00, 0x00, 0x00, 0x01, 0x00, 0x00, 0x00, 0x09, 0x00, 0x00, 0x00,
  0x9a, 0xff, 0xff, 0xff, 0x10, 0x00, 0x00, 0x00, 0x00, 0x00, 0x00, 0x08,
  0x0c, 0x00, 0x00, 0x00, 0x10, 0x00, 0x00, 0x00, 0x24, 0xfb, 0xff, 0xff,
  0x01, 0x00, 0x00, 0x00, 0x09, 0x00, 0x00, 0x00, 0x03, 0x00, 0x00, 0x00,
  0x08, 0x00, 0x00, 0x00, 0x06, 0x00, 0x00, 0x00, 0x02, 0x00, 0x00, 0x00,
  0xca, 0xff, 0xff, 0xff, 0x10, 0x00, 0x00, 0x00, 0x00, 0x00, 0x00, 0x08,
  0x10, 0x00, 0x00, 0x00, 0x14, 0x00, 0x00, 0x00, 0xba, 0xff, 0xff, 0xff,
  0x00, 0x00, 0x00, 0x01, 0x01, 0x00, 0x00, 0x00, 0x08, 0x00, 0x00, 0x00,
  0x03, 0x00, 0x00, 0x00, 0x07, 0x00, 0x00, 0x00, 0x05, 0x00, 0x00, 0x00,
  0x01, 0x00, 0x00, 0x00, 0x00, 0x00, 0x0e, 0x00, 0x16, 0x00, 0x00, 0x00,
  0x10, 0x00, 0x0c, 0x00, 0x0b, 0x00, 0x04, 0x00, 0x0e, 0x00, 0x00, 0x00,
  0x18, 0x00, 0x00, 0x00, 0x00, 0x00, 0x00, 0x08, 0x18, 0x00, 0x00, 0x00,
  0x1c, 0x00, 0x00, 0x00, 0x00, 0x00, 0x06, 0x00, 0x08, 0x00, 0x07, 0x00,
  0x06, 0x00, 0x00, 0x00, 0x00, 0x00, 0x00, 0x01, 0x01, 0x00, 0x00, 0x00,
  0x07, 0x00, 0x00, 0x00, 0x03, 0x00, 0x00, 0x00, 0x00, 0x00, 0x00, 0x00,
  0x04, 0x00, 0x00, 0x00, 0x03, 0x00, 0x00, 0x00, 0x01, 0x00, 0x00, 0x00,
  0x0a, 0x00, 0x00, 0x00, 0x01, 0x00, 0x00, 0x00, 0x00, 0x00, 0x00, 0x00,
  0x0b, 0x00, 0x00, 0x00, 0x04, 0x04, 0x00, 0x00, 0x94, 0x03, 0x00, 0x00,
  0x24, 0x03, 0x00, 0x00, 0xd0, 0x02, 0x00, 0x00, 0x88, 0x02, 0x00, 0x00,
  0x3c, 0x02, 0x00, 0x00, 0xf0, 0x01, 0x00, 0x00, 0x68, 0x01, 0x00, 0x00,
  0xd8, 0x00, 0x00, 0x00, 0x60, 0x00, 0x00, 0x00, 0x04, 0x00, 0x00, 0x00,
  0x3e, 0xfc, 0xff, 0xff, 0x00, 0x00, 0x00, 0x01, 0x14, 0x00, 0x00, 0x00,
  0x1c, 0x00, 0x00, 0x00, 0x1c, 0x00, 0x00, 0x00, 0x0b, 0x00, 0x00, 0x00,
  0x34, 0x00, 0x00, 0x00, 0x02, 0x00, 0x00, 0x00, 0xff, 0xff, 0xff, 0xff,
  0x03, 0x00, 0x00, 0x00, 0x28, 0xfc, 0xff, 0xff, 0x19, 0x00, 0x00, 0x00,
  0x53, 0x74, 0x61, 0x74, 0x65, 0x66, 0x75, 0x6c, 0x50, 0x61, 0x72, 0x74,
  0x69, 0x74, 0x69, 0x6f, 0x6e, 0x65, 0x64, 0x43, 0x61, 0x6c, 0x6c, 0x3a,
  0x30, 0x00, 0x00, 0x00, 0x02, 0x00, 0x00, 0x00, 0x01, 0x00, 0x00, 0x00,
  0x03, 0x00, 0x00, 0x00, 0x96, 0xfc, 0xff, 0xff, 0x00, 0x00, 0x00, 0x01,
  0x14, 0x00, 0x00, 0x00, 0x1c, 0x00, 0x00, 0x00, 0x1c, 0x00, 0x00, 0x00,
  0x0a, 0x00, 0x00, 0x00, 0x50, 0x00, 0x00, 0x00, 0x02, 0x00, 0x00, 0x00,
  0xff, 0xff, 0xff, 0xff, 0x03, 0x00, 0x00, 0x00, 0x80, 0xfc, 0xff, 0xff,
  0x34, 0x00, 0x00, 0x00, 0x73, 0x65, 0x71, 0x75, 0x65, 0x6e, 0x74, 0x69,
  0x61, 0x6c, 0x2f, 0x64, 0x65, 0x6e, 0x73, 0x65, 0x5f, 0x32, 0x2f, 0x4d,
  0x61, 0x74, 0x4d, 0x75, 0x6c, 0x3b, 0x73, 0x65, 0x71, 0x75, 0x65, 0x6e,
  0x74, 0x69, 0x61, 0x6c, 0x2f, 0x64, 0x65, 0x6e, 0x73, 0x65, 0x5f, 0x32,
  0x2f, 0x42, 0x69, 0x61, 0x73, 0x41, 0x64, 0x64, 0x00, 0x00, 0x00, 0x00,
  0x02, 0x00, 0x00, 0x00, 0x01, 0x00, 0x00, 0x00, 0x03, 0x00, 0x00, 0x00,
  0x0a, 0xfd, 0xff, 0xff, 0x00, 0x00, 0x00, 0x01, 0x14, 0x00, 0x00, 0x00,
  0x1c, 0x00, 0x00, 0x00, 0x1c, 0x00, 0x00, 0x00, 0x09, 0x00, 0x00, 0x00,
  0x68, 0x00, 0x00, 0x00, 0x02, 0x00, 0x00, 0x00, 0xff, 0xff, 0xff, 0xff,
  0x0a, 0x00, 0x00, 0x00, 0xf4, 0xfc, 0xff, 0xff, 0x4c, 0x00, 0x00, 0x00,
  0x73, 0x65, 0x71, 0x75, 0x65, 0x6e, 0x74, 0x69, 0x61, 0x6c, 0x2f, 0x64,
  0x65, 0x6e, 0x73, 0x65, 0x5f, 0x31, 0x2f, 0x4d, 0x61, 0x74, 0x4d, 0x75,
  0x6c, 0x3b, 0x73, 0x65, 0x71, 0x75, 0x65, 0x6e, 0x74, 0x69, 0x61, 0x6c,
  0x2f, 0x64, 0x65, 0x6e, 0x73, 0x65, 0x5f, 0x31, 0x2f, 0x52, 0x65, 0x6c,
  0x75, 0x3b, 0x73, 0x65, 0x71, 0x75, 0x65, 0x6e, 0x74, 0x69, 0x61, 0x6c,
  0x2f, 0x64, 0x65, 0x6e, 0x73, 0x65, 0x5f, 0x31, 0x2f, 0x42, 0x69, 0x61,
  0x73, 0x41, 0x64, 0x64, 0x00, 0x00, 0x00, 0x00, 0x02, 0x00, 0x00, 0x00,
  0x01, 0x00, 0x00, 0x00, 0x0a, 0x00, 0x00, 0x00, 0x96, 0xfd, 0xff, 0xff,
  0x00, 0x00, 0x00, 0x01, 0x14, 0x00, 0x00, 0x00, 0x1c, 0x00, 0x00, 0x00,
  0x1c, 0x00, 0x00, 0x00, 0x08, 0x00, 0x00, 0x00, 0x60, 0x00, 0x00, 0x00,
  0x02, 0x00, 0x00, 0x00, 0xff, 0xff, 0xff, 0xff, 0x14, 0x00, 0x00, 0x00,
  0x80, 0xfd, 0xff, 0xff, 0x46, 0x00, 0x00, 0x00, 0x73, 0x65, 0x71, 0x75,
  0x65, 0x6e, 0x74, 0x69, 0x61, 0x6c, 0x2f, 0x64, 0x65, 0x6e, 0x73, 0x65,
  0x2f, 0x4d, 0x61, 0x74, 0x4d, 0x75, 0x6c, 0x3b, 0x73, 0x65, 0x71, 0x75,
  0x65, 0x6e, 0x74, 0x69, 0x61, 0x6c, 0x2f, 0x64, 0x65, 0x6e, 0x73, 0x65,
  0x2f, 0x52, 0x65, 0x6c, 0x75, 0x3b, 0x73, 0x65, 0x71, 0x75, 0x65, 0x6e,
  0x74, 0x69, 0x61, 0x6c, 0x2f, 0x64, 0x65, 0x6e, 0x73, 0x65, 0x2f, 0x42,
  0x69, 0x61, 0x73, 0x41, 0x64, 0x64, 0x00, 0x00, 0x02, 0x00, 0x00, 0x00,
  0x01, 0x00, 0x00, 0x00, 0x14, 0x00, 0x00, 0x00, 0x86, 0xfe, 0xff, 0xff,
  0x00, 0x00, 0x00, 0x01, 0x10, 0x00, 0x00, 0x00, 0x10, 0x00, 0x00, 0x00,
  0x07, 0x00, 0x00, 0x00, 0x28, 0x00, 0x00, 0x00, 0xf4, 0xfd, 0xff, 0xff,
  0x19, 0x00, 0x00, 0x00, 0x73, 0x65, 0x71, 0x75, 0x65, 0x6e, 0x74, 0x69,
  0x61, 0x6c, 0x2f, 0x64, 0x65, 0x6e, 0x73, 0x65, 0x5f, 0x32, 0x2f, 0x4d,
  0x61, 0x74, 0x4d, 0x75, 0x6c, 0x00, 0x00, 0x00, 0x02, 0x00, 0x00, 0x00,
  0x03, 0x00, 0x00, 0x00, 0x0a, 0x00, 0x00, 0x00, 0xce, 0xfe, 0xff, 0xff,
  0x00, 0x00, 0x00, 0x01, 0x10, 0x00, 0x00, 0x00, 0x10, 0x00, 0x00, 0x00,
  0x06, 0x00, 0x00, 0x00, 0x28, 0x00, 0x00, 0x00, 0x3c, 0xfe, 0xff, 0xff,
  0x19, 0x00, 0x00, 0x00, 0x73, 0x65, 0x71, 0x75, 0x65, 0x6e, 0x74, 0x69,
  0x61, 0x6c, 0x2f, 0x64, 0x65, 0x6e, 0x73, 0x65, 0x5f, 0x31, 0x2f, 0x4d,
  0x61, 0x74, 0x4d, 0x75, 0x6c, 0x00, 0x00, 0x00, 0x02, 0x00, 0x00, 0x00,
  0x0a, 0x00, 0x00, 0x00, 0x14, 0x00, 0x00, 0x00, 0x16, 0xff, 0xff, 0xff,
  0x00, 0x00, 0x00, 0x01, 0x10, 0x00, 0x00, 0x00, 0x10, 0x00, 0x00, 0x00,
  0x05, 0x00, 0x00, 0x00, 0x24, 0x00, 0x00, 0x00, 0x84, 0xfe, 0xff, 0xff,
  0x17, 0x00, 0x00, 0x00, 0x73, 0x65, 0x71, 0x75, 0x65, 0x6e, 0x74, 0x69,
  0x61, 0x6c, 0x2f, 0x64, 0x65, 0x6e, 0x73, 0x65, 0x2f, 0x4d, 0x61, 0x74,
  0x4d, 0x75, 0x6c, 0x00, 0x02, 0x00, 0x00, 0x00, 0x14, 0x00, 0x00, 0x00,
  0x2a, 0x00, 0x00, 0x00, 0x5a, 0xff, 0xff, 0xff, 0x00, 0x00, 0x00, 0x01,
  0x10, 0x00, 0x00, 0x00, 0x10, 0x00, 0x00, 0x00, 0x04, 0x00, 0x00, 0x00,
  0x34, 0x00, 0x00, 0x00, 0xc8, 0xfe, 0xff, 0xff, 0x27, 0x00, 0x00, 0x00,
  0x73, 0x65, 0x71, 0x75, 0x65, 0x6e, 0x74, 0x69, 0x61, 0x6c, 0x2f, 0x64,
  0x65, 0x6e, 0x73, 0x65, 0x2f, 0x42, 0x69, 0x61, 0x73, 0x41, 0x64, 0x64,
  0x2f, 0x52, 0x65, 0x61, 0x64, 0x56, 0x61, 0x72, 0x69, 0x61, 0x62, 0x6c,
  0x65, 0x4f, 0x70, 0x00, 0x01, 0x00, 0x00, 0x00, 0x14, 0x00, 0x00, 0x00,
  0xaa, 0xff, 0xff, 0xff, 0x00, 0x00, 0x00, 0x01, 0x10, 0x00, 0x00, 0x00,
  0x10, 0x00, 0x00, 0x00, 0x03, 0x00, 0x00, 0x00, 0x38, 0x00, 0x00, 0x00,
  0x18, 0xff, 0xff, 0xff, 0x29, 0x00, 0x00, 0x00, 0x73, 0x65, 0x71, 0x75,
  0x65, 0x6e, 0x74, 0x69, 0x61, 0x6c, 0x2f, 0x64, 0x65, 0x6e, 0x73, 0x65,
  0x5f, 0x32, 0x2f, 0x42, 0x69, 0x61, 0x73, 0x41, 0x64, 0x64, 0x2f, 0x52,
  0x65, 0x61, 0x64, 0x56, 0x61, 0x72, 0x69, 0x61, 0x62, 0x6c, 0x65, 0x4f,
  0x70, 0x00, 0x00, 0x00, 0x01, 0x00, 0x00, 0x00, 0x03, 0x00, 0x00, 0x00,
  0x00, 0x00, 0x16, 0x00, 0x18, 0x00, 0x14, 0x00, 0x00, 0x00, 0x10, 0x00,
  0x0c, 0x00, 0x08, 0x00, 0x00, 0x00, 0x00, 0x00, 0x00, 0x00, 0x07, 0x00,
  0x16, 0x00, 0x00, 0x00, 0x00, 0x00, 0x00, 0x01, 0x10, 0x00, 0x00, 0x00,
  0x10, 0x00, 0x00, 0x00, 0x02, 0x00, 0x00, 0x00, 0x38, 0x00, 0x00, 0x00,
  0x84, 0xff, 0xff, 0xff, 0x29, 0x00, 0x00, 0x00, 0x73, 0x65, 0x71, 0x75,
  0x65, 0x6e, 0x74, 0x69, 0x61, 0x6c, 0x2f, 0x64, 0x65, 0x6e, 0x73, 0x65,
  0x5f, 0x31, 0x2f, 0x42, 0x69, 0x61, 0x73, 0x41, 0x64, 0x64, 0x2f, 0x52,
  0x65, 0x61, 0x64, 0x56, 0x61, 0x72, 0x69, 0x61, 0x62, 0x6c, 0x65, 0x4f,
  0x70, 0x00, 0x00, 0x00, 0x01, 0x00, 0x00, 0x00, 0x0a, 0x00, 0x00, 0x00,
  0x00, 0x00, 0x16, 0x00, 0x1c, 0x00, 0x18, 0x00, 0x00, 0x00, 0x14, 0x00,
  0x10, 0x00, 0x0c, 0x00, 0x00, 0x00, 0x00, 0x00, 0x08, 0x00, 0x07, 0x00,
  0x16, 0x00, 0x00, 0x00, 0x00, 0x00, 0x00, 0x01, 0x14, 0x00, 0x00, 0x00,
  0x20, 0x00, 0x00, 0x00, 0x20, 0x00, 0x00, 0x00, 0x01, 0x00, 0x00, 0x00,
  0x3c, 0x00, 0x00, 0x00, 0x02, 0x00, 0x00, 0x00, 0xff, 0xff, 0xff, 0xff,
  0x2a, 0x00, 0x00, 0x00, 0x04, 0x00, 0x04, 0x00, 0x04, 0x00, 0x00, 0x00,
  0x1d, 0x00, 0x00, 0x00, 0x73, 0x65, 0x72, 0x76, 0x69, 0x6e, 0x67, 0x5f,
  0x64, 0x65, 0x66, 0x61, 0x75, 0x6c, 0x74, 0x5f, 0x64, 0x65, 0x6e, 0x73,
  0x65, 0x5f, 0x69, 0x6e, 0x70, 0x75, 0x74, 0x3a, 0x30, 0x00, 0x00, 0x00,
  0x02, 0x00, 0x00, 0x00, 0x01, 0x00, 0x00, 0x00, 0x2a, 0x00, 0x00, 0x00,
  0x02, 0x00, 0x00, 0x00, 0x20, 0x00, 0x00, 0x00, 0x04, 0x00, 0x00, 0x00,
  0xf4, 0xff, 0xff, 0xff, 0x19, 0x00, 0x00, 0x00, 0x00, 0x00, 0x00, 0x19,
  0x0c, 0x00, 0x0c, 0x00, 0x0b, 0x00, 0x00, 0x00, 0x00, 0x00, 0x04, 0x00,
  0x0c, 0x00, 0x00, 0x00, 0x09, 0x00, 0x00, 0x00, 0x00, 0x00, 0x00, 0x09
};
unsigned int models_model_dense_tflite_len = 6504;
