/* Copyright 2019 The TensorFlow Authors. All Rights Reserved.

Licensed under the Apache License, Version 2.0 (the "License");
you may not use this file except in compliance with the License.
You may obtain a copy of the License at

    http://www.apache.org/licenses/LICENSE-2.0

Unless required by applicable law or agreed to in writing, software
distributed under the License is distributed on an "AS IS" BASIS,
WITHOUT WARRANTIES OR CONDITIONS OF ANY KIND, either express or implied.
See the License for the specific language governing permissions and
limitations under the License.
==============================================================================*/

// Automatically created from a TensorFlow Lite flatbuffer using the command:
// xxd -i magic_wand_model.tflite > magic_wand_model_data.cc
// See the README for a full description of the creation process.

// We need to keep the data array aligned on some architectures.
#ifdef __has_attribute
#define HAVE_ATTRIBUTE(x) __has_attribute(x)
#else
#define HAVE_ATTRIBUTE(x) 0
#endif
#if HAVE_ATTRIBUTE(aligned) || (defined(__GNUC__) && !defined(__clang__))
#define DATA_ALIGN_ATTRIBUTE __attribute__((aligned(4)))
#else
#define DATA_ALIGN_ATTRIBUTE
#endif

const unsigned char g_tof_detector_model_data[] DATA_ALIGN_ATTRIBUTE = {
  0x1c, 0x00, 0x00, 0x00, 0x54, 0x46, 0x4c, 0x33, 0x14, 0x00, 0x20, 0x00,
  0x1c, 0x00, 0x18, 0x00, 0x14, 0x00, 0x10, 0x00, 0x0c, 0x00, 0x00, 0x00,
  0x08, 0x00, 0x04, 0x00, 0x14, 0x00, 0x00, 0x00, 0x1c, 0x00, 0x00, 0x00,
  0x90, 0x00, 0x00, 0x00, 0xe8, 0x00, 0x00, 0x00, 0x38, 0x13, 0x00, 0x00,
  0x48, 0x13, 0x00, 0x00, 0x04, 0x19, 0x00, 0x00, 0x03, 0x00, 0x00, 0x00,
  0x01, 0x00, 0x00, 0x00, 0x10, 0x00, 0x00, 0x00, 0x00, 0x00, 0x0a, 0x00,
  0x10, 0x00, 0x0c, 0x00, 0x08, 0x00, 0x04, 0x00, 0x0a, 0x00, 0x00, 0x00,
  0x0c, 0x00, 0x00, 0x00, 0x1c, 0x00, 0x00, 0x00, 0x38, 0x00, 0x00, 0x00,
  0x0f, 0x00, 0x00, 0x00, 0x73, 0x65, 0x72, 0x76, 0x69, 0x6e, 0x67, 0x5f,
  0x64, 0x65, 0x66, 0x61, 0x75, 0x6c, 0x74, 0x00, 0x01, 0x00, 0x00, 0x00,
  0x04, 0x00, 0x00, 0x00, 0x98, 0xff, 0xff, 0xff, 0x0a, 0x00, 0x00, 0x00,
  0x04, 0x00, 0x00, 0x00, 0x07, 0x00, 0x00, 0x00, 0x64, 0x65, 0x6e, 0x73,
  0x65, 0x5f, 0x32, 0x00, 0x01, 0x00, 0x00, 0x00, 0x04, 0x00, 0x00, 0x00,
  0xaa, 0xec, 0xff, 0xff, 0x04, 0x00, 0x00, 0x00, 0x0b, 0x00, 0x00, 0x00,
  0x64, 0x65, 0x6e, 0x73, 0x65, 0x5f, 0x69, 0x6e, 0x70, 0x75, 0x74, 0x00,
  0x02, 0x00, 0x00, 0x00, 0x34, 0x00, 0x00, 0x00, 0x04, 0x00, 0x00, 0x00,
  0xdc, 0xff, 0xff, 0xff, 0x0d, 0x00, 0x00, 0x00, 0x04, 0x00, 0x00, 0x00,
  0x13, 0x00, 0x00, 0x00, 0x43, 0x4f, 0x4e, 0x56, 0x45, 0x52, 0x53, 0x49,
  0x4f, 0x4e, 0x5f, 0x4d, 0x45, 0x54, 0x41, 0x44, 0x41, 0x54, 0x41, 0x00,
  0x08, 0x00, 0x0c, 0x00, 0x08, 0x00, 0x04, 0x00, 0x08, 0x00, 0x00, 0x00,
  0x0c, 0x00, 0x00, 0x00, 0x04, 0x00, 0x00, 0x00, 0x13, 0x00, 0x00, 0x00,
  0x6d, 0x69, 0x6e, 0x5f, 0x72, 0x75, 0x6e, 0x74, 0x69, 0x6d, 0x65, 0x5f,
  0x76, 0x65, 0x72, 0x73, 0x69, 0x6f, 0x6e, 0x00, 0x0e, 0x00, 0x00, 0x00,
  0x4c, 0x12, 0x00, 0x00, 0x44, 0x12, 0x00, 0x00, 0x0c, 0x12, 0x00, 0x00,
  0xf0, 0x11, 0x00, 0x00, 0x90, 0x11, 0x00, 0x00, 0x60, 0x04, 0x00, 0x00,
  0x30, 0x01, 0x00, 0x00, 0xa8, 0x00, 0x00, 0x00, 0xa0, 0x00, 0x00, 0x00,
  0x98, 0x00, 0x00, 0x00, 0x90, 0x00, 0x00, 0x00, 0x88, 0x00, 0x00, 0x00,
  0x68, 0x00, 0x00, 0x00, 0x04, 0x00, 0x00, 0x00, 0x5a, 0xed, 0xff, 0xff,
  0x04, 0x00, 0x00, 0x00, 0x54, 0x00, 0x00, 0x00, 0x0c, 0x00, 0x00, 0x00,
  0x08, 0x00, 0x0e, 0x00, 0x08, 0x00, 0x04, 0x00, 0x08, 0x00, 0x00, 0x00,
  0x10, 0x00, 0x00, 0x00, 0x24, 0x00, 0x00, 0x00, 0x00, 0x00, 0x06, 0x00,
  0x08, 0x00, 0x04, 0x00, 0x06, 0x00, 0x00, 0x00, 0x04, 0x00, 0x00, 0x00,
  0x00, 0x00, 0x00, 0x00, 0x00, 0x00, 0x0a, 0x00, 0x10, 0x00, 0x0c, 0x00,
  0x08, 0x00, 0x04, 0x00, 0x0a, 0x00, 0x00, 0x00, 0x02, 0x00, 0x00, 0x00,
  0x02, 0x00, 0x00, 0x00, 0x04, 0x00, 0x00, 0x00, 0x06, 0x00, 0x00, 0x00,
  0x32, 0x2e, 0x31, 0x35, 0x2e, 0x30, 0x00, 0x00, 0xba, 0xed, 0xff, 0xff,
  0x04, 0x00, 0x00, 0x00, 0x10, 0x00, 0x00, 0x00, 0x31, 0x2e, 0x35, 0x2e,
  0x30, 0x00, 0x00, 0x00, 0x00, 0x00, 0x00, 0x00, 0x00, 0x00, 0x00, 0x00,
  0xc8, 0xe8, 0xff, 0xff, 0xcc, 0xe8, 0xff, 0xff, 0xd0, 0xe8, 0xff, 0xff,
  0xd4, 0xe8, 0xff, 0xff, 0xe6, 0xed, 0xff, 0xff, 0x04, 0x00, 0x00, 0x00,
  0x78, 0x00, 0x00, 0x00, 0xc0, 0x32, 0xb0, 0x3e, 0xfe, 0x19, 0x8f, 0x3d,
  0x0f, 0x9d, 0xbc, 0xbe, 0x62, 0xf9, 0xf6, 0xbe, 0xab, 0x83, 0xa1, 0xbe,
  0xec, 0x41, 0x00, 0x3c, 0x56, 0xa6, 0x6b, 0x3e, 0x94, 0x11, 0x03, 0xbf,
  0x1f, 0xbe, 0x90, 0x3e, 0xa2, 0x9b, 0x12, 0x3f, 0x24, 0x8c, 0x16, 0x3f,
  0x56, 0x65, 0xaf, 0x3e, 0x26, 0x07, 0x2b, 0xbf, 0x13, 0xee, 0x06, 0x3e,
  0x43, 0x7d, 0x58, 0x3d, 0xff, 0x4c, 0x6a, 0x3d, 0xe2, 0x1e, 0x0a, 0xbb,
  0x3b, 0xf5, 0x59, 0xbe, 0x67, 0xb0, 0x04, 0x3f, 0x7a, 0xe0, 0xbe, 0x3c,
  0x74, 0xc2, 0xff, 0x3d, 0xf9, 0x47, 0xc2, 0x3e, 0x9d, 0x26, 0x95, 0xbe,
  0xf5, 0x5e, 0x11, 0x3f, 0x45, 0xb2, 0x1b, 0xbf, 0x2e, 0xe2, 0x8e, 0xbe,
  0xa0, 0x1e, 0xe0, 0x3e, 0x19, 0x15, 0x08, 0x3f, 0xa9, 0xaa, 0xa5, 0xbe,
  0x6a, 0x23, 0x16, 0xbf, 0x6a, 0xee, 0xff, 0xff, 0x04, 0x00, 0x00, 0x00,
  0x20, 0x03, 0x00, 0x00, 0xd2, 0x6d, 0x73, 0xbe, 0x55, 0x24, 0x93, 0x3e,
  0x45, 0x2f, 0x3d, 0x3d, 0xde, 0x0f, 0xcb, 0xbc, 0x95, 0xf7, 0x9c, 0x3e,
  0xca, 0x26, 0x36, 0x3e, 0xcc, 0xe6, 0x41, 0x3e, 0xb4, 0x09, 0x9a, 0xbe,
  0xbd, 0x84, 0x4f, 0xbe, 0x11, 0xea, 0x00, 0xbe, 0x0f, 0xcd, 0x0b, 0x3e,
  0xe5, 0x3a, 0xed, 0xbe, 0xfb, 0x97, 0x90, 0xbe, 0x40, 0x6d, 0x6c, 0x3d,
  0xbb, 0x4e, 0x70, 0xbe, 0x04, 0xdc, 0x9c, 0xba, 0x32, 0x90, 0x8e, 0x3e,
  0x4f, 0xd6, 0x94, 0x3e, 0xa9, 0x10, 0xad, 0x3e, 0xa8, 0x31, 0x91, 0xbd,
  0xa3, 0x5a, 0x1f, 0x3e, 0x88, 0xaf, 0x8c, 0xbe, 0x8a, 0x2e, 0x52, 0xbe,
  0x20, 0xb8, 0x9f, 0xbe, 0x22, 0x4d, 0x0a, 0x3d, 0xa4, 0x99, 0xcc, 0x3e,
  0x8c, 0xa3, 0x5f, 0xbd, 0xa5, 0xf2, 0xc1, 0xbe, 0x38, 0x5c, 0xb9, 0x3c,
  0x23, 0xa0, 0x71, 0xbe, 0x41, 0xa5, 0x02, 0xbe, 0x8f, 0x6c, 0x19, 0xbd,
  0x55, 0x2a, 0xbc, 0xbd, 0x1d, 0xb6, 0xd0, 0x3d, 0xcb, 0x1b, 0xef, 0xbe,
  0xda, 0x25, 0xe0, 0x3d, 0x80, 0xb4, 0xc2, 0x3e, 0x5a, 0xc0, 0x78, 0x3e,
  0x22, 0x15, 0x98, 0xbc, 0x30, 0xe2, 0x84, 0x3e, 0xae, 0xde, 0xed, 0xbe,
  0xa0, 0xb1, 0xab, 0x3d, 0xdf, 0xdc, 0x8d, 0x3e, 0x16, 0x07, 0xa3, 0x3e,
  0x19, 0x6b, 0xe5, 0xbd, 0x63, 0x08, 0x1c, 0x3e, 0x15, 0x41, 0xbf, 0xbe,
  0x4e, 0xe4, 0xc7, 0x3e, 0x85, 0xa7, 0x39, 0xbe, 0x6b, 0x0f, 0x96, 0xbe,
  0xec, 0x6b, 0x93, 0x3d, 0xf7, 0x97, 0xb9, 0xbe, 0x4f, 0x33, 0xb8, 0x3e,
  0xe7, 0x7b, 0x09, 0x3f, 0x28, 0x31, 0xd7, 0x3e, 0x4a, 0x35, 0xa3, 0x3d,
  0x5d, 0x77, 0xe5, 0xbd, 0xef, 0x9c, 0x95, 0xbe, 0xf4, 0x76, 0xa3, 0x3e,
  0x98, 0xc4, 0x8a, 0x3e, 0xbc, 0x0d, 0xcd, 0x3d, 0xe1, 0x17, 0xaa, 0x3e,
  0x34, 0xae, 0x9a, 0xbe, 0x7e, 0xff, 0xa0, 0x3e, 0x13, 0xb0, 0xb9, 0xbd,
  0x8d, 0xba, 0xf9, 0x3e, 0xa5, 0x61, 0xad, 0xbe, 0xbd, 0xd7, 0x3f, 0x3d,
  0xf4, 0x93, 0xbf, 0x3e, 0x31, 0x77, 0x31, 0xbe, 0x55, 0x88, 0xda, 0x3e,
  0x99, 0x9c, 0xd5, 0x3e, 0x37, 0x30, 0x85, 0xbd, 0x1a, 0xef, 0xb6, 0xbe,
  0xff, 0x1e, 0x8d, 0x3e, 0x8d, 0x0f, 0xb5, 0xbe, 0x33, 0xad, 0x64, 0xbe,
  0xec, 0x30, 0x5e, 0xbc, 0xb8, 0xce, 0xf4, 0xbd, 0x59, 0xb7, 0x9a, 0xbd,
  0xee, 0xb6, 0x6c, 0x3d, 0x1d, 0xa0, 0x81, 0x3d, 0x80, 0xe5, 0x3d, 0x3d,
  0xab, 0x83, 0x7b, 0x3e, 0x1e, 0xe3, 0x47, 0x3e, 0x5d, 0x17, 0x95, 0xbe,
  0x43, 0x4c, 0xd8, 0x3e, 0xd7, 0x0e, 0xde, 0x3e, 0xaf, 0x76, 0x96, 0x3e,
  0x28, 0x6a, 0xa7, 0xbe, 0x94, 0x47, 0xa1, 0xbe, 0xbd, 0xe9, 0x35, 0xbe,
  0x9e, 0xc5, 0xd0, 0xbb, 0xb3, 0xf2, 0xc4, 0x3e, 0x56, 0x5c, 0xcf, 0x3d,
  0xa3, 0x33, 0x19, 0xbe, 0x59, 0x1f, 0x60, 0xbe, 0x0d, 0x2b, 0xd1, 0xbe,
  0x91, 0x56, 0x60, 0xbe, 0xc6, 0xcd, 0x8f, 0xbd, 0xf1, 0x80, 0x20, 0xbe,
  0xe3, 0xbd, 0x4f, 0xbe, 0x79, 0xb4, 0xc3, 0x3d, 0x74, 0x15, 0xd8, 0x3e,
  0x76, 0x2b, 0xf8, 0x3b, 0xd2, 0x4b, 0x95, 0x3e, 0xc7, 0x84, 0xf7, 0xbd,
  0xa4, 0x5e, 0x21, 0x3e, 0xcb, 0x8c, 0xb4, 0xbd, 0xc8, 0xea, 0x80, 0x3e,
  0xb8, 0x69, 0xac, 0xbe, 0x3f, 0x45, 0xac, 0x3e, 0xa3, 0xf2, 0x18, 0xbe,
  0xf3, 0xb5, 0x9d, 0xbc, 0xe5, 0x2c, 0x6f, 0x3e, 0x25, 0xad, 0x03, 0x3e,
  0xb6, 0x06, 0xf8, 0x3e, 0xbd, 0x3f, 0x96, 0xbe, 0xbc, 0x74, 0xdb, 0x3c,
  0xbe, 0x5a, 0xb6, 0xbe, 0x45, 0xd6, 0x00, 0xbd, 0x2d, 0xf7, 0xb1, 0xbd,
  0xa3, 0x27, 0xb5, 0x3e, 0x5e, 0x53, 0x21, 0x3e, 0x21, 0x4f, 0xb0, 0xbe,
  0x8e, 0xc5, 0xa4, 0xbd, 0xbd, 0x0b, 0xfd, 0x3d, 0x01, 0x2f, 0xad, 0x3e,
  0x59, 0x68, 0x84, 0x3d, 0x55, 0x10, 0xcc, 0xbd, 0x7f, 0x0d, 0x31, 0xbe,
  0x81, 0xe6, 0x28, 0xbe, 0x95, 0x97, 0x82, 0x3e, 0xc2, 0x14, 0x8a, 0x3c,
  0xe7, 0x32, 0x65, 0xbe, 0x3f, 0xd8, 0x98, 0xbd, 0x47, 0x76, 0xb8, 0x3c,
  0x61, 0x0a, 0xff, 0xbd, 0xd3, 0x1f, 0x01, 0x3e, 0x4d, 0x9f, 0xb5, 0xbc,
  0xbe, 0x37, 0x88, 0x3d, 0x4e, 0x2d, 0x47, 0x3e, 0x57, 0x29, 0x30, 0x3e,
  0x67, 0x0c, 0xc2, 0x3e, 0xf1, 0xec, 0x8d, 0xbe, 0x50, 0x70, 0xd6, 0x3e,
  0xf1, 0x56, 0x71, 0xbe, 0x7f, 0xef, 0x03, 0x3e, 0x26, 0x0b, 0xa0, 0x3e,
  0x95, 0xe9, 0x2d, 0x3e, 0x17, 0xaf, 0x27, 0xbe, 0x1a, 0xa7, 0x99, 0xbd,
  0x72, 0x07, 0x5c, 0x3e, 0xc5, 0x47, 0x9e, 0xbe, 0xef, 0x73, 0x6f, 0xbe,
  0x71, 0x30, 0x9b, 0x3e, 0xd0, 0xea, 0xd7, 0x3d, 0xb0, 0xaf, 0x0e, 0xbe,
  0xfe, 0x92, 0x2b, 0xbe, 0x1d, 0xb1, 0xce, 0x3e, 0x17, 0x86, 0xcf, 0xbe,
  0x93, 0xec, 0xfb, 0x3d, 0xb1, 0x17, 0xdd, 0x3d, 0xfa, 0xa1, 0x8a, 0x3e,
  0x24, 0x1d, 0x62, 0xbe, 0xdb, 0x30, 0xfa, 0xbd, 0x47, 0xdf, 0x27, 0xbd,
  0x1d, 0x17, 0x7b, 0xbe, 0x9f, 0x46, 0xde, 0x3e, 0xfc, 0x94, 0x3f, 0x3d,
  0xb6, 0xf3, 0xc4, 0x3e, 0x82, 0x4c, 0x8a, 0x3a, 0x32, 0x06, 0xcc, 0xbd,
  0xc1, 0xf8, 0xd2, 0xbe, 0x93, 0xd2, 0xf1, 0x3d, 0x5b, 0x5b, 0xda, 0xbd,
  0xbb, 0x6c, 0x64, 0xbe, 0x44, 0xd4, 0xbe, 0xbe, 0x8b, 0xa4, 0xc3, 0x3e,
  0xad, 0x35, 0xbc, 0xbe, 0x3c, 0xb6, 0xe7, 0x3d, 0x92, 0xf6, 0xa9, 0xbd,
  0xd1, 0xe8, 0xff, 0x3d, 0x2f, 0x93, 0x9d, 0x3e, 0x37, 0x5f, 0xbc, 0x3d,
  0xf8, 0x0d, 0xe6, 0xbd, 0x08, 0xf0, 0x59, 0xbe, 0xa5, 0x08, 0x8c, 0x3d,
  0x74, 0x71, 0x10, 0x3e, 0x0a, 0x02, 0xb0, 0x3e, 0x98, 0xdd, 0x44, 0xbe,
  0x1a, 0x83, 0x13, 0x3e, 0xf3, 0x07, 0x16, 0xbd, 0x52, 0x30, 0x94, 0xbe,
  0x0a, 0x6d, 0x57, 0x3e, 0xc9, 0xf5, 0x7a, 0xbe, 0x28, 0xf2, 0xc0, 0xbd,
  0x50, 0xf7, 0xad, 0x3e, 0x53, 0x6a, 0xbf, 0xbe, 0xc4, 0xc1, 0xbc, 0x3d,
  0x96, 0xf1, 0xff, 0xff, 0x04, 0x00, 0x00, 0x00, 0x20, 0x0d, 0x00, 0x00,
  0x08, 0x92, 0xbc, 0xbc, 0x04, 0x65, 0x6e, 0x3e, 0x65, 0xd9, 0xc9, 0x3c,
  0x5b, 0xe9, 0x28, 0xbe, 0xc4, 0x7c, 0x06, 0xbe, 0x71, 0x02, 0x8f, 0x3d,
  0x22, 0x30, 0x69, 0x3e, 0x28, 0x4a, 0x12, 0xbe, 0x55, 0x49, 0x80, 0xbd,
  0xa7, 0xf2, 0x3b, 0x3e, 0xc7, 0x34, 0x18, 0xbd, 0x71, 0xce, 0xa4, 0xbe,
  0xec, 0xcc, 0x40, 0x3e, 0x20, 0x89, 0x4f, 0x3e, 0x89, 0xdd, 0x23, 0x3e,
  0x74, 0xb6, 0x78, 0xbe, 0xd9, 0x40, 0x37, 0xbe, 0x84, 0xec, 0x67, 0x3e,
  0xd0, 0xe2, 0x34, 0x3e, 0x31, 0xbd, 0x92, 0xbe, 0x28, 0xb2, 0x43, 0xbe,
  0xf6, 0x93, 0xa6, 0xbe, 0x73, 0x28, 0x33, 0x3e, 0xe7, 0xb8, 0x0b, 0xbe,
  0xba, 0xe0, 0x26, 0x3e, 0xfb, 0x66, 0x8b, 0x3e, 0x31, 0x88, 0xf6, 0x3d,
  0xb9, 0x9b, 0xa6, 0x3c, 0xf6, 0x88, 0xec, 0xbb, 0x89, 0x46, 0x07, 0x3e,
  0x13, 0x5e, 0x75, 0x3d, 0xa3, 0x71, 0x6b, 0xbd, 0x35, 0x99, 0x00, 0x3b,
  0x08, 0xec, 0x13, 0x3e, 0x47, 0xcd, 0xe0, 0xbd, 0xed, 0x8b, 0x52, 0x3e,
  0x31, 0x09, 0x07, 0x3e, 0xdb, 0x25, 0x04, 0xbe, 0xb4, 0xa8, 0x87, 0x3e,
  0x99, 0x64, 0x37, 0xbe, 0x64, 0x3e, 0x5e, 0x3e, 0x58, 0x01, 0x78, 0xbd,
  0xe6, 0xb6, 0x45, 0x3e, 0xfa, 0x02, 0x1f, 0xbd, 0xb0, 0x43, 0xfd, 0x3d,
  0x06, 0x4a, 0x23, 0x3d, 0x49, 0x6b, 0x88, 0xbe, 0xa9, 0xe4, 0x45, 0x3e,
  0x42, 0xe3, 0x5d, 0xbe, 0xa8, 0x85, 0xfc, 0x3d, 0x3a, 0xfd, 0xf9, 0x3d,
  0x34, 0x0f, 0x81, 0x3d, 0x7a, 0xbb, 0x71, 0xbe, 0xa7, 0xee, 0x7e, 0x3e,
  0x63, 0xd5, 0x31, 0xbd, 0x78, 0x3f, 0x03, 0xbe, 0xf2, 0x69, 0x97, 0x3e,
  0xcd, 0x16, 0x8e, 0x3d, 0xdb, 0x96, 0x47, 0x3c, 0x9f, 0x24, 0x25, 0xbe,
  0x7f, 0x34, 0x17, 0x3e, 0x5b, 0x1f, 0x77, 0x3e, 0x39, 0x83, 0x03, 0xbd,
  0xe4, 0xaf, 0x59, 0x3e, 0xa7, 0xbb, 0x83, 0x3d, 0xda, 0x0b, 0x9c, 0xbe,
  0xdb, 0xcf, 0xa1, 0x3d, 0x56, 0xdb, 0x6e, 0x3d, 0xfc, 0x7d, 0x90, 0xbe,
  0x35, 0xa0, 0x74, 0x3c, 0xfb, 0xd1, 0x46, 0xbe, 0x9d, 0x6b, 0x00, 0x3e,
  0x53, 0xc3, 0x79, 0xbd, 0x7a, 0x2c, 0x04, 0x3e, 0xb2, 0xa7, 0x63, 0xbe,
  0xb8, 0xbc, 0x2d, 0x3e, 0x2e, 0xb5, 0x03, 0x3c, 0x27, 0x25, 0x2b, 0x3e,
  0x0f, 0x36, 0x83, 0xbe, 0x6f, 0x91, 0x89, 0xbe, 0x09, 0xef, 0x48, 0x3e,
  0xa8, 0x02, 0x29, 0x3e, 0xc5, 0xe1, 0x95, 0xbe, 0xfe, 0x57, 0x9b, 0x3e,
  0xa0, 0x7c, 0x50, 0x3e, 0x3c, 0xd5, 0xb4, 0x3c, 0xcb, 0xce, 0x56, 0xbe,
  0xf5, 0x52, 0x59, 0x3d, 0x75, 0x6d, 0x60, 0x3e, 0xc8, 0x87, 0xab, 0x3e,
  0xff, 0x98, 0xef, 0xbd, 0x66, 0x3e, 0xc3, 0xba, 0xae, 0xfa, 0xaa, 0x3e,
  0x8c, 0xc9, 0xfc, 0xbd, 0x73, 0x74, 0x22, 0x3e, 0x3b, 0x4e, 0x86, 0xbd,
  0xaf, 0x75, 0x04, 0x3e, 0xad, 0x83, 0xcb, 0xbd, 0x70, 0x43, 0xc8, 0x3d,
  0x99, 0xbe, 0x21, 0x3e, 0x58, 0xd6, 0xf6, 0xbd, 0x64, 0xde, 0x6b, 0x3e,
  0x5c, 0x3a, 0x43, 0x3d, 0xc9, 0xc3, 0x89, 0xbe, 0x36, 0xd2, 0xd7, 0x3d,
  0x1d, 0xa9, 0xe8, 0xbc, 0x72, 0x76, 0x71, 0xbe, 0x8d, 0x7c, 0x23, 0x3e,
  0x10, 0xae, 0x9c, 0x3e, 0x07, 0x2e, 0x9d, 0x3b, 0x2c, 0xfb, 0x2a, 0xbd,
  0x00, 0xa3, 0x5b, 0x3e, 0xe2, 0xf8, 0x66, 0x3d, 0xd8, 0x83, 0xc8, 0xbd,
  0xe9, 0xb0, 0x2f, 0x3e, 0x78, 0xcd, 0x18, 0xbe, 0x07, 0x6d, 0x96, 0x3e,
  0x51, 0x7a, 0x67, 0x3d, 0xf7, 0xdd, 0xab, 0x3e, 0xc6, 0x80, 0x36, 0xbd,
  0x11, 0xb8, 0xc4, 0xbd, 0xe8, 0x3a, 0x9c, 0x3d, 0x38, 0xa6, 0x32, 0x3d,
  0x67, 0xfd, 0xa8, 0xbe, 0x2f, 0xc1, 0x78, 0xbe, 0xfb, 0x9a, 0x45, 0x3e,
  0xc6, 0xd1, 0x34, 0xbe, 0xdb, 0x56, 0x96, 0xbd, 0x63, 0xbe, 0xd3, 0x3d,
  0xc6, 0x7d, 0x96, 0xbe, 0x5a, 0x35, 0x74, 0xbe, 0xcf, 0xd1, 0x3a, 0xbd,
  0xf7, 0xff, 0x4f, 0x3e, 0xd5, 0x89, 0xd6, 0x3d, 0x42, 0x2e, 0x5c, 0xbe,
  0x8e, 0xbe, 0x2d, 0x3e, 0x0c, 0x7c, 0x27, 0x3c, 0x22, 0xc5, 0x9f, 0xbe,
  0xd5, 0x3d, 0xe9, 0x3c, 0x85, 0x3f, 0x2f, 0x3d, 0x7e, 0x56, 0x4e, 0x3e,
  0xce, 0x9e, 0x02, 0x3b, 0x59, 0xef, 0xe6, 0x3d, 0x2a, 0xa9, 0x74, 0x3c,
  0xb7, 0x6e, 0x0e, 0xbe, 0x67, 0x0c, 0xf9, 0x3d, 0xcc, 0x5e, 0x06, 0x3e,
  0xaa, 0x6e, 0x29, 0x3e, 0x6d, 0xe0, 0xa3, 0xbc, 0x36, 0x48, 0x65, 0xbd,
  0x7f, 0xf5, 0xae, 0x3d, 0x30, 0x79, 0x33, 0x3d, 0x8e, 0x37, 0x72, 0x3e,
  0x56, 0x62, 0x21, 0xbd, 0x70, 0x1d, 0x4f, 0x3e, 0xfd, 0x7e, 0x82, 0x3e,
  0x2b, 0x91, 0xf8, 0xbd, 0x15, 0xa2, 0x36, 0xbe, 0x0a, 0x56, 0x69, 0xbe,
  0xc8, 0x91, 0x86, 0xbd, 0x8e, 0x34, 0xa9, 0xbc, 0xe2, 0x3f, 0xcc, 0x3d,
  0xa0, 0xc8, 0xb3, 0x3d, 0xb1, 0xe8, 0x9e, 0xbe, 0x27, 0x91, 0x17, 0xbe,
  0x10, 0xee, 0xef, 0xbd, 0xff, 0x63, 0x14, 0xbd, 0x02, 0x73, 0x91, 0xbc,
  0xf4, 0x3e, 0xa3, 0x3e, 0x61, 0x51, 0xdb, 0xbc, 0xfd, 0xbc, 0xd8, 0xbd,
  0x2a, 0x11, 0x66, 0x3e, 0x0f, 0xf7, 0xe7, 0xbc, 0x2d, 0x88, 0x06, 0xbd,
  0xe7, 0x13, 0xe7, 0x3d, 0xd9, 0xe0, 0x5f, 0x3e, 0x84, 0xb6, 0x9b, 0xbe,
  0xd1, 0x6e, 0x05, 0xbe, 0x04, 0xbf, 0xe5, 0x3d, 0x54, 0xb1, 0x1f, 0x3e,
  0x10, 0x9d, 0x57, 0x3e, 0x20, 0x54, 0xbd, 0x3d, 0xc6, 0xa1, 0x6e, 0xbe,
  0xb8, 0x8b, 0xa8, 0xbe, 0xa5, 0x43, 0xd5, 0xbd, 0x95, 0xab, 0x46, 0xbe,
  0x9f, 0x8e, 0x83, 0xbe, 0x9d, 0xbb, 0xad, 0xbe, 0xcc, 0x30, 0x4d, 0x3d,
  0x09, 0x14, 0x17, 0xbe, 0xea, 0x5e, 0x81, 0xbe, 0xed, 0xc9, 0x43, 0xbc,
  0x3d, 0x18, 0x35, 0xbe, 0x5b, 0x38, 0x6d, 0xbd, 0xba, 0xde, 0x64, 0xbb,
  0x8a, 0x04, 0x2f, 0x3c, 0x92, 0x3e, 0x7a, 0x3d, 0xde, 0x8f, 0xfc, 0x3d,
  0xc9, 0x79, 0xec, 0x3d, 0x3a, 0xf8, 0x80, 0x3e, 0x59, 0x2c, 0x5d, 0x3e,
  0x99, 0xda, 0x79, 0x3d, 0x5f, 0x46, 0x02, 0x3e, 0x1f, 0x51, 0x3d, 0x3e,
  0xea, 0xbe, 0xf6, 0x3d, 0x94, 0xed, 0xbe, 0x3d, 0x0e, 0x0c, 0x32, 0xbc,
  0x34, 0x63, 0x42, 0xbe, 0xe7, 0x58, 0x47, 0x3d, 0xa2, 0x7d, 0x07, 0xbb,
  0x35, 0x34, 0x5b, 0xbe, 0x74, 0xdc, 0x87, 0x3e, 0x1d, 0x54, 0xdd, 0x3b,
  0x24, 0x1c, 0x01, 0xbd, 0xf5, 0xf0, 0x2d, 0xbe, 0xfa, 0x77, 0x11, 0x3c,
  0x90, 0x75, 0xb5, 0x3d, 0xf4, 0xa6, 0x75, 0x3e, 0x66, 0x1c, 0xec, 0xbc,
  0xec, 0xfc, 0x7f, 0xbc, 0xf5, 0x73, 0x86, 0x3e, 0xc0, 0xb6, 0x95, 0x3e,
  0x9e, 0xcc, 0x9d, 0xbe, 0x59, 0x5d, 0x0e, 0xbe, 0xa6, 0x91, 0x36, 0x3e,
  0xe8, 0x06, 0xa1, 0xbd, 0x1f, 0xa7, 0xa2, 0xbd, 0x67, 0x7e, 0x1b, 0xbb,
  0xe6, 0x23, 0x1a, 0x3a, 0x0c, 0xeb, 0x94, 0xbe, 0x2e, 0x3c, 0x27, 0x3e,
  0xdd, 0x9b, 0xa5, 0xbe, 0x92, 0x40, 0x7f, 0x3e, 0xa7, 0xb3, 0x34, 0x3e,
  0xd2, 0x74, 0x31, 0xbe, 0x39, 0xe4, 0x1c, 0x3e, 0xa8, 0x03, 0x15, 0x3e,
  0xdc, 0x19, 0x31, 0xbd, 0xc4, 0x0f, 0x0f, 0x3d, 0x01, 0x79, 0x6e, 0xbd,
  0xd2, 0x0d, 0xcb, 0xbd, 0x7f, 0xe2, 0xd5, 0x3d, 0x8a, 0x05, 0x49, 0xbe,
  0x8c, 0x88, 0x26, 0xbe, 0xb4, 0xe3, 0x50, 0xbe, 0xa2, 0x75, 0xce, 0xbb,
  0x72, 0x79, 0xdb, 0x3c, 0x3e, 0x95, 0x9c, 0xbe, 0x75, 0xd2, 0x15, 0xbe,
  0x27, 0x98, 0x41, 0xbc, 0xa1, 0xe2, 0x8a, 0xbd, 0x7d, 0x45, 0xde, 0xbd,
  0x33, 0xff, 0xeb, 0x3d, 0x4e, 0xfb, 0x8f, 0xbe, 0x3b, 0xfc, 0x42, 0x3d,
  0x22, 0x29, 0x82, 0x3e, 0xd9, 0x11, 0x1a, 0xbe, 0x31, 0x98, 0x06, 0xbe,
  0x57, 0xb5, 0x26, 0xbe, 0x19, 0x4c, 0xaf, 0xbe, 0x9a, 0xdd, 0x05, 0x3e,
  0x72, 0x3f, 0x88, 0x3e, 0x2f, 0x80, 0x3b, 0xbe, 0xc2, 0x9d, 0x92, 0xbe,
  0x88, 0x67, 0x4f, 0xbe, 0x9f, 0x29, 0xb5, 0xbc, 0x36, 0x46, 0xa7, 0x3e,
  0x0f, 0x2b, 0x20, 0xbe, 0xf6, 0x2d, 0x4e, 0xbc, 0xde, 0x50, 0x32, 0xbd,
  0xba, 0x7a, 0x30, 0x3d, 0xf6, 0xa6, 0x69, 0xbe, 0x6c, 0xbb, 0x43, 0xbe,
  0xf1, 0xc2, 0x62, 0x3e, 0xec, 0x5c, 0xaa, 0xbe, 0x92, 0x12, 0x17, 0x3e,
  0x80, 0x07, 0x59, 0xbe, 0xe5, 0x17, 0xcb, 0xbd, 0x7b, 0x82, 0x16, 0xbe,
  0x5f, 0xc9, 0x7f, 0x3d, 0xe1, 0x35, 0x7a, 0xbe, 0x27, 0xb8, 0x07, 0x3e,
  0xd1, 0x3e, 0x5a, 0xbe, 0x3f, 0x70, 0xdd, 0xbc, 0x64, 0x5c, 0xf6, 0xbd,
  0x8d, 0x51, 0xbb, 0xbe, 0x2a, 0xbf, 0x1e, 0x3e, 0x1b, 0x33, 0x17, 0x3e,
  0x23, 0xf8, 0xa8, 0xbe, 0xa5, 0xb8, 0x82, 0x3e, 0x73, 0xf8, 0x09, 0x3e,
  0xd2, 0xa8, 0x29, 0x3e, 0xcf, 0x26, 0xe8, 0xbd, 0xc4, 0x89, 0x57, 0xbe,
  0x61, 0x4d, 0x74, 0xbe, 0x3d, 0x99, 0x8e, 0xbd, 0xab, 0x85, 0x7b, 0x3e,
  0xaa, 0xd7, 0x50, 0x3c, 0xf3, 0xe4, 0x35, 0xbe, 0xe2, 0x85, 0xf5, 0xbd,
  0xe3, 0xda, 0x52, 0x3e, 0x61, 0xdf, 0x12, 0xbd, 0xd1, 0x3e, 0xb8, 0x3c,
  0x82, 0xdf, 0xe6, 0x3d, 0x43, 0xf0, 0xdf, 0xbd, 0x71, 0x45, 0xa6, 0x3c,
  0x92, 0x66, 0xb2, 0x3e, 0x33, 0x44, 0x7e, 0xbd, 0xa6, 0x92, 0x93, 0x3e,
  0x0d, 0xa7, 0x47, 0x3e, 0x1d, 0x2c, 0xbe, 0x3c, 0xf5, 0xfb, 0xf1, 0xbd,
  0x51, 0xd0, 0x58, 0xbe, 0xb9, 0x3f, 0x58, 0xbe, 0xdc, 0x23, 0x93, 0x3d,
  0x69, 0xfb, 0x9b, 0x3e, 0x73, 0xe8, 0x97, 0x3e, 0x9e, 0x0c, 0x8e, 0x3e,
  0x52, 0x97, 0xb4, 0x3d, 0x7f, 0x15, 0x89, 0xbe, 0xf9, 0x3d, 0x5b, 0x3d,
  0xdf, 0x5e, 0xc5, 0x3c, 0x9b, 0x77, 0x18, 0x3e, 0x8e, 0x5d, 0xa7, 0x3e,
  0x51, 0x2f, 0x34, 0xbe, 0x27, 0x96, 0x97, 0x3d, 0x7a, 0x58, 0x92, 0x3e,
  0x5b, 0x40, 0x98, 0xbd, 0x65, 0x19, 0x15, 0xbe, 0xdd, 0x4c, 0x1b, 0xbe,
  0x14, 0xe4, 0xa5, 0x3e, 0x18, 0xf1, 0x79, 0x3e, 0x51, 0x50, 0x81, 0xbe,
  0x6c, 0x11, 0x2e, 0x3e, 0xc4, 0x71, 0xa6, 0x3e, 0xa3, 0x30, 0xa9, 0x3c,
  0x43, 0x84, 0x9f, 0xbe, 0x63, 0xb6, 0xe3, 0xbd, 0xfe, 0x06, 0x2e, 0x3e,
  0x60, 0x3d, 0x7a, 0x3e, 0x4f, 0x42, 0x8e, 0xbe, 0xb7, 0xa9, 0x4e, 0x3e,
  0x16, 0xc6, 0x7f, 0x3e, 0x5c, 0xc6, 0x4d, 0x3d, 0xa5, 0xc4, 0x85, 0xbe,
  0x7a, 0x71, 0x4a, 0x3e, 0x2c, 0x73, 0x67, 0xbe, 0x9c, 0xc6, 0x60, 0xbe,
  0xbf, 0x7c, 0x3f, 0xbe, 0x4f, 0x5f, 0x84, 0xbe, 0xb7, 0x96, 0xac, 0xbd,
  0xc9, 0xb0, 0x22, 0xbe, 0xad, 0xf7, 0x57, 0xbe, 0x46, 0x01, 0xed, 0x3d,
  0xbd, 0x60, 0x2a, 0xbc, 0xbf, 0xf9, 0x3f, 0xbc, 0xed, 0x5e, 0x60, 0xbd,
  0x57, 0x9a, 0x71, 0x3c, 0xda, 0x25, 0xcd, 0xbd, 0x1a, 0xdf, 0x52, 0x3d,
  0x47, 0xd8, 0x79, 0xbc, 0x6f, 0x6f, 0x04, 0x3d, 0xac, 0x4b, 0xf4, 0x3d,
  0xf7, 0xf3, 0x67, 0x3e, 0x1d, 0x32, 0x0b, 0x3c, 0x7e, 0xce, 0x33, 0xbe,
  0x5a, 0x77, 0x52, 0x3e, 0x94, 0x41, 0x6f, 0x3e, 0x5f, 0xdd, 0xa7, 0xbe,
  0xa4, 0x7f, 0x83, 0x3c, 0xb7, 0x3c, 0x36, 0x3e, 0x13, 0xdb, 0x71, 0x3e,
  0x90, 0x79, 0x3c, 0x3e, 0x28, 0xf3, 0x71, 0xbe, 0x5d, 0x42, 0x12, 0xbe,
  0xce, 0x9b, 0x6d, 0x3d, 0x92, 0x5d, 0x3e, 0xbd, 0x90, 0x2b, 0xbb, 0xbc,
  0x72, 0xab, 0xf7, 0x3d, 0x6a, 0x41, 0x2f, 0x3e, 0xa8, 0xe6, 0x58, 0xbd,
  0x82, 0xde, 0x6e, 0xbd, 0xd1, 0x9d, 0x82, 0xbe, 0x44, 0x59, 0x20, 0xbd,
  0xe6, 0x6f, 0x10, 0x3e, 0x8a, 0xe7, 0xc8, 0xbc, 0x8c, 0x73, 0x2c, 0xbd,
  0x28, 0x07, 0xa9, 0xbd, 0x49, 0x7a, 0x03, 0xbe, 0xd7, 0x1a, 0x96, 0x3d,
  0xb9, 0xd2, 0xa3, 0xbe, 0x7a, 0xa5, 0x5f, 0x3c, 0xe2, 0x8b, 0x6b, 0xbe,
  0x8c, 0xab, 0x10, 0xbe, 0x0b, 0xcc, 0x91, 0x3e, 0x9d, 0x44, 0x78, 0xbe,
  0x72, 0xc4, 0x4a, 0x3e, 0x0e, 0x91, 0x88, 0xbe, 0x80, 0x2e, 0x9f, 0xbe,
  0xd0, 0x31, 0x9c, 0x3e, 0x5c, 0x2b, 0xfb, 0x3d, 0x26, 0x08, 0xd3, 0x3d,
  0x78, 0x4d, 0x6a, 0x3e, 0x92, 0x5f, 0xee, 0x3d, 0x60, 0xfb, 0x07, 0xbe,
  0x7b, 0xcc, 0x7e, 0x3e, 0xcc, 0x99, 0x52, 0x3e, 0xba, 0x53, 0x60, 0x3e,
  0xdb, 0x5b, 0xdd, 0x3d, 0x1c, 0x7f, 0xfa, 0xbb, 0xfd, 0x6f, 0x8f, 0x3d,
  0xa0, 0x65, 0x5a, 0x3e, 0x5d, 0x76, 0xae, 0xbe, 0x5c, 0x34, 0xb4, 0x3e,
  0x4f, 0xc7, 0x7e, 0x3d, 0xca, 0xdc, 0x3a, 0xbe, 0x1a, 0xb8, 0xbf, 0xbc,
  0xcf, 0xb7, 0x3c, 0xbd, 0x0c, 0x3c, 0x38, 0x3e, 0x55, 0x01, 0x2c, 0xbe,
  0x9d, 0x23, 0x94, 0xbd, 0xdc, 0xb0, 0xdf, 0x3d, 0x7d, 0x20, 0xc1, 0x3d,
  0x02, 0xf3, 0x8f, 0x3d, 0xd3, 0x92, 0x37, 0xbd, 0xfe, 0xe4, 0x27, 0x3e,
  0x46, 0x0a, 0xad, 0x3d, 0xcd, 0x0d, 0x74, 0xbe, 0x1e, 0x3a, 0xf2, 0xbd,
  0x96, 0xd9, 0x91, 0x3d, 0xf7, 0x22, 0x8c, 0xbe, 0xf7, 0x60, 0xa0, 0x3e,
  0xba, 0x26, 0x5b, 0xbc, 0x68, 0xe0, 0x85, 0x3e, 0xa2, 0xfd, 0x1f, 0x3e,
  0xa1, 0x10, 0x5e, 0xbe, 0x86, 0xde, 0x4e, 0x3e, 0x72, 0x61, 0x98, 0xbd,
  0x40, 0x2c, 0xfb, 0xba, 0x28, 0xd2, 0xc4, 0x3c, 0xad, 0x97, 0x85, 0x3e,
  0x65, 0x9a, 0x49, 0xbe, 0xd6, 0xf9, 0xb7, 0x3d, 0x46, 0xeb, 0xe7, 0x3d,
  0x42, 0x8f, 0xd7, 0xbd, 0xa7, 0x92, 0xa8, 0xbd, 0x9d, 0xc1, 0x63, 0xbe,
  0x2b, 0x79, 0xac, 0xbd, 0x70, 0xf4, 0xb7, 0x3b, 0xcf, 0x45, 0x72, 0xbe,
  0xa5, 0xff, 0x54, 0x3e, 0x40, 0x43, 0x20, 0x3e, 0xfa, 0x2d, 0x82, 0xbd,
  0xcb, 0x19, 0x5b, 0xbe, 0x83, 0xfa, 0x71, 0xbe, 0xf1, 0x54, 0x2d, 0x3d,
  0xff, 0x47, 0x17, 0xbe, 0x26, 0x64, 0x89, 0x3d, 0xb3, 0x83, 0x7e, 0xbe,
  0xce, 0xf2, 0x09, 0x3e, 0x80, 0x62, 0x30, 0x3d, 0x6b, 0xc7, 0xce, 0xbd,
  0xda, 0xcd, 0x83, 0x3e, 0xe6, 0x78, 0x75, 0x3c, 0xd5, 0x95, 0x0c, 0xbd,
  0xca, 0x44, 0x05, 0x3e, 0x06, 0x5b, 0x0b, 0xbe, 0xf6, 0x56, 0x65, 0x3e,
  0x33, 0xee, 0xbb, 0xbe, 0xaa, 0x48, 0x3b, 0x3e, 0x36, 0x62, 0xc1, 0xbd,
  0x1c, 0xb3, 0x1d, 0xbe, 0xdb, 0x76, 0x94, 0x3d, 0xd1, 0x2f, 0xf8, 0xbd,
  0x09, 0x69, 0x0e, 0x3e, 0x9c, 0x78, 0xba, 0xbe, 0xb1, 0xb7, 0x9a, 0xbe,
  0x09, 0x17, 0xbc, 0x3d, 0x76, 0xe6, 0x51, 0xbe, 0xe9, 0x91, 0x7a, 0x3e,
  0x3d, 0x03, 0x7a, 0x3e, 0xa0, 0x93, 0x95, 0xbe, 0x2a, 0x09, 0x8f, 0x3c,
  0x85, 0x79, 0x7e, 0xbb, 0x92, 0x59, 0x98, 0x3e, 0xd8, 0x3a, 0x50, 0xbb,
  0x42, 0x79, 0x39, 0xbe, 0x4e, 0xfd, 0x7f, 0x3e, 0x3a, 0x42, 0xb5, 0x3e,
  0xe5, 0x93, 0xb3, 0x3e, 0x81, 0xa5, 0x2c, 0x3d, 0x45, 0x06, 0x16, 0xbe,
  0xaa, 0xe6, 0x01, 0xbe, 0xff, 0x71, 0x2c, 0x3e, 0xfb, 0xde, 0xa0, 0x3e,
  0xfb, 0xb3, 0x8f, 0xbd, 0xca, 0x94, 0x1d, 0x3e, 0x90, 0x8a, 0x59, 0x3d,
  0x24, 0x80, 0x56, 0xbe, 0xe7, 0x08, 0xe0, 0xbd, 0x46, 0x7a, 0xdf, 0x3d,
  0xd5, 0xf5, 0x1d, 0x3e, 0x5e, 0xc1, 0x21, 0x3e, 0x39, 0xb0, 0x3b, 0x3e,
  0xec, 0xec, 0xf7, 0xbc, 0x7f, 0xee, 0x9e, 0x3e, 0x73, 0xb5, 0x10, 0x3e,
  0xc1, 0x32, 0x95, 0xbe, 0x8b, 0x46, 0xe1, 0xbd, 0x40, 0x74, 0x44, 0xbe,
  0xa1, 0x85, 0xaf, 0x3c, 0x6c, 0x22, 0xf4, 0x3c, 0xfd, 0x9b, 0x96, 0xbd,
  0x87, 0xa6, 0x2b, 0xbe, 0x55, 0x66, 0x93, 0x3d, 0xe0, 0xbc, 0x52, 0xbd,
  0xc6, 0x05, 0x59, 0x3e, 0x9d, 0x60, 0x88, 0xbe, 0xae, 0x2a, 0x85, 0x3e,
  0xdb, 0x55, 0x68, 0x3d, 0x00, 0xac, 0x49, 0xbe, 0x59, 0xaf, 0x93, 0xbd,
  0xed, 0xd8, 0x17, 0x3e, 0x4a, 0x43, 0x55, 0x3e, 0x1c, 0x66, 0x83, 0x3e,
  0xbf, 0x1d, 0x3c, 0xbd, 0xb0, 0x88, 0xbf, 0x3d, 0x8c, 0xd5, 0x69, 0xbe,
  0xad, 0xab, 0x98, 0xbe, 0x19, 0x7f, 0xa8, 0xbe, 0xd4, 0x16, 0x3a, 0x3d,
  0xc6, 0x46, 0x48, 0xbd, 0x14, 0xfc, 0x24, 0x3d, 0x7b, 0xbb, 0x39, 0x3e,
  0x42, 0x22, 0x9a, 0xbd, 0xcc, 0xbb, 0x2b, 0xbe, 0xbb, 0x0e, 0x39, 0xbe,
  0x6e, 0x42, 0x00, 0xbe, 0xe9, 0xc6, 0x25, 0x3e, 0x81, 0x90, 0x36, 0x3e,
  0xd1, 0x15, 0x16, 0xbe, 0x12, 0x37, 0x1b, 0x3e, 0xb2, 0x7c, 0x2f, 0x3e,
  0xe3, 0xaa, 0xb7, 0x3d, 0xa2, 0x3c, 0xb4, 0xbe, 0x2d, 0xa0, 0xd0, 0xbd,
  0x39, 0x6b, 0x31, 0xb9, 0xdd, 0x47, 0x0a, 0x3e, 0x14, 0x9e, 0xd1, 0xbd,
  0x35, 0x3c, 0x1d, 0xbb, 0x1e, 0xc9, 0xbd, 0x3d, 0xb8, 0xac, 0x5a, 0x3d,
  0x26, 0xbe, 0x2c, 0x3e, 0x19, 0xe0, 0x87, 0x3e, 0xa4, 0xc9, 0x10, 0x3e,
  0xb9, 0x23, 0xb5, 0x3e, 0x36, 0x9f, 0x18, 0x3c, 0x1e, 0x39, 0xf8, 0xbd,
  0x81, 0xb0, 0xbd, 0x3e, 0xd7, 0xe5, 0x27, 0x3c, 0x5d, 0xcf, 0x9e, 0x3e,
  0xd3, 0xbe, 0x6e, 0xbe, 0xee, 0xd1, 0xc1, 0x3d, 0xe8, 0x41, 0x95, 0xbd,
  0x10, 0x4a, 0x52, 0xbd, 0xe3, 0xd3, 0x14, 0xbe, 0x3b, 0x85, 0xf0, 0x3d,
  0x40, 0x51, 0x94, 0x3e, 0x3f, 0xd0, 0x76, 0x3e, 0x97, 0x51, 0xc8, 0xbd,
  0xd6, 0x6b, 0xb3, 0x3e, 0x77, 0x53, 0xc7, 0x3d, 0x78, 0xd1, 0xaf, 0x3e,
  0x62, 0xd9, 0xda, 0x3d, 0xe8, 0x72, 0x4e, 0x3e, 0xa9, 0xd6, 0x91, 0x3e,
  0x40, 0x8b, 0xed, 0xbd, 0x35, 0x49, 0xc9, 0x3d, 0x96, 0x81, 0x31, 0xbd,
  0x4a, 0x9b, 0xf4, 0xbd, 0x1b, 0x60, 0xbc, 0xbd, 0x37, 0x36, 0x52, 0x3e,
  0x55, 0xfc, 0x07, 0x3e, 0x8c, 0x0a, 0x86, 0x3e, 0x09, 0x30, 0x58, 0x3e,
  0xba, 0x6b, 0x10, 0xbe, 0x18, 0xdf, 0x17, 0xbe, 0x80, 0x5b, 0xc8, 0xbd,
  0xe9, 0x4b, 0x51, 0xbe, 0xa0, 0x24, 0x05, 0x3e, 0xd7, 0x59, 0x7e, 0xbd,
  0x0b, 0x69, 0xa7, 0x3e, 0xc7, 0xcd, 0x36, 0xbe, 0x88, 0xaf, 0x99, 0x3b,
  0x3b, 0x2f, 0x46, 0x3e, 0x8c, 0x09, 0x0f, 0x3d, 0x2e, 0xbc, 0x52, 0xbd,
  0x79, 0x56, 0xf7, 0xbc, 0xda, 0x18, 0x13, 0x3e, 0xdb, 0x3d, 0xbb, 0xb9,
  0xe0, 0x36, 0x5a, 0x3e, 0xa2, 0xcb, 0xb1, 0x3a, 0xfc, 0x31, 0xa2, 0xbe,
  0xd8, 0xcd, 0x64, 0x3e, 0x0f, 0xa7, 0x44, 0x3e, 0xfa, 0x3c, 0x8b, 0x3d,
  0xc8, 0xfb, 0xb4, 0x3d, 0xaa, 0x97, 0x5d, 0x3e, 0x2c, 0xbc, 0xda, 0x3a,
  0xa7, 0x32, 0xcc, 0xbd, 0x15, 0x51, 0xe2, 0xbd, 0x45, 0xe7, 0xca, 0x3d,
  0x9a, 0x4c, 0xaa, 0xbd, 0xad, 0xdb, 0xb1, 0x3d, 0x47, 0xbe, 0x17, 0xbd,
  0xad, 0x20, 0xf0, 0x3d, 0xc6, 0x9d, 0xd5, 0xbd, 0x4d, 0xbf, 0x20, 0x3e,
  0xb9, 0xcf, 0x09, 0xbe, 0x1c, 0xc2, 0x95, 0x3e, 0x41, 0x39, 0x2b, 0x3e,
  0x38, 0x42, 0xa4, 0x3e, 0x2f, 0x7f, 0x03, 0xbc, 0x6a, 0x42, 0x40, 0xbe,
  0x46, 0x81, 0xa5, 0x3e, 0xa9, 0xb8, 0x27, 0x3e, 0xd4, 0x9d, 0x21, 0x3e,
  0x60, 0x7b, 0xeb, 0x3d, 0x25, 0xa2, 0x4b, 0x3e, 0x5b, 0x8b, 0xc8, 0x3d,
  0x21, 0xf7, 0xf7, 0xbb, 0xe2, 0x1a, 0xe6, 0xbd, 0xd1, 0x29, 0x5d, 0x3e,
  0xac, 0x5d, 0x74, 0xbe, 0xa9, 0x4e, 0x9d, 0x3d, 0x97, 0x0f, 0x3b, 0xbe,
  0x3f, 0xc6, 0x61, 0xbe, 0xfa, 0x95, 0x24, 0xbe, 0x7e, 0xdd, 0xa6, 0x3e,
  0x13, 0x79, 0xd7, 0xbd, 0xcb, 0x57, 0x96, 0xbd, 0xbc, 0x5f, 0x90, 0x3e,
  0x3d, 0x63, 0x99, 0x3e, 0xbf, 0x0e, 0x4a, 0x3e, 0x08, 0xe6, 0xa7, 0x3d,
  0xc6, 0xb8, 0xc3, 0x3d, 0x03, 0x56, 0xb7, 0x3d, 0x1c, 0xec, 0x3c, 0xbe,
  0x1d, 0x3e, 0xa5, 0x3c, 0xc9, 0x70, 0xe3, 0x3d, 0xa5, 0x65, 0xda, 0xbd,
  0x2e, 0xbd, 0x50, 0x3e, 0x5a, 0x05, 0x25, 0xbe, 0x24, 0x20, 0x1e, 0x3e,
  0xcc, 0x8a, 0x1f, 0xbd, 0xec, 0xf6, 0x85, 0x3e, 0xa6, 0x77, 0x5f, 0xbe,
  0x95, 0xed, 0x82, 0x3e, 0x7b, 0xac, 0x5e, 0x3e, 0xb2, 0xd1, 0x8e, 0x3e,
  0x5e, 0xff, 0x3c, 0x3e, 0x41, 0x91, 0xcb, 0xbd, 0xdd, 0x12, 0xc4, 0xbb,
  0x8f, 0x27, 0x4a, 0x3e, 0x9b, 0x85, 0xb9, 0x3d, 0xb3, 0x00, 0x66, 0xbe,
  0x17, 0x66, 0xff, 0x3d, 0xbc, 0xdb, 0x7e, 0x3e, 0x53, 0x1f, 0x76, 0x3e,
  0xf6, 0xb0, 0x33, 0xbe, 0x16, 0x3b, 0xdb, 0xbd, 0x8f, 0x34, 0xd9, 0x3c,
  0xa3, 0xfb, 0x11, 0x3e, 0x17, 0xca, 0x9c, 0x3e, 0x45, 0x18, 0x85, 0x3e,
  0x6b, 0x43, 0xa0, 0xbe, 0xe3, 0xcf, 0xa8, 0xbb, 0xb7, 0x98, 0x0e, 0xbd,
  0x2e, 0x7b, 0x4f, 0xbd, 0xf3, 0x75, 0x3f, 0x3e, 0x2e, 0xf6, 0x37, 0x3b,
  0x25, 0x12, 0x25, 0xbe, 0xd9, 0x14, 0xee, 0xbd, 0x2f, 0x7d, 0x4c, 0x3e,
  0x5a, 0xf1, 0x56, 0x3e, 0xf8, 0xdf, 0x1d, 0xbd, 0xec, 0xc4, 0xcf, 0xbc,
  0x1f, 0x9b, 0x6f, 0xbe, 0xf0, 0xd8, 0x57, 0xbe, 0x98, 0xf5, 0xac, 0xbd,
  0xfc, 0x74, 0x11, 0x3b, 0xc5, 0xee, 0x8e, 0xbe, 0x95, 0x88, 0x6d, 0xbe,
  0x77, 0x74, 0x7d, 0xbe, 0x80, 0x73, 0x8b, 0xbe, 0x3a, 0x97, 0x15, 0x3e,
  0x78, 0xa5, 0x81, 0x3e, 0x3a, 0x4d, 0x3f, 0xbe, 0x80, 0xa0, 0x96, 0x3e,
  0x46, 0xaf, 0x78, 0xbe, 0xed, 0x23, 0x54, 0xbd, 0x5f, 0x8a, 0xda, 0xbd,
  0xb3, 0x77, 0x0f, 0x3d, 0xde, 0x2f, 0x33, 0xbe, 0x41, 0xee, 0x90, 0x3e,
  0xf7, 0xde, 0xc9, 0xbd, 0x90, 0x9e, 0x6a, 0xbe, 0x41, 0xa4, 0x79, 0x3e,
  0xa3, 0x1c, 0x1d, 0x3e, 0x89, 0xa1, 0x2a, 0xbe, 0x3d, 0x01, 0xc9, 0xbd,
  0xbd, 0xe7, 0x98, 0xbe, 0x5c, 0x43, 0x83, 0xbb, 0x6c, 0x57, 0x75, 0x3e,
  0xd3, 0xc5, 0x42, 0xbd, 0xbb, 0xcf, 0x8c, 0xbe, 0x1b, 0x85, 0x8c, 0x3d,
  0x52, 0x89, 0x93, 0x3d, 0x86, 0xb2, 0xbf, 0x3d, 0x6e, 0x45, 0x8c, 0x3e,
  0x41, 0xec, 0x06, 0x3e, 0x9a, 0x8a, 0x96, 0x3e, 0x68, 0xa2, 0x8f, 0xbe,
  0xf6, 0x94, 0x59, 0x3e, 0x00, 0xf6, 0x0d, 0x3c, 0xcf, 0xe1, 0xe9, 0x3d,
  0xa5, 0x61, 0xd5, 0xbd, 0xf3, 0x91, 0x67, 0xbe, 0xb6, 0x17, 0x75, 0x3e,
  0x8f, 0xd1, 0x5d, 0x3e, 0x12, 0xa4, 0x24, 0x3e, 0x3e, 0x1e, 0xa2, 0x3d,
  0xc1, 0x22, 0x5c, 0xbe, 0x89, 0x88, 0xf7, 0x3d, 0x9d, 0x0a, 0x9a, 0xbb,
  0x78, 0x10, 0x00, 0x3d, 0x40, 0x83, 0x39, 0xbe, 0xfb, 0xba, 0xc0, 0xbd,
  0x09, 0x52, 0x8a, 0xbd, 0xd1, 0x5a, 0x87, 0x3e, 0xd1, 0x12, 0xd1, 0xbd,
  0x29, 0xb0, 0x50, 0xbe, 0xcc, 0xf9, 0x85, 0x3e, 0x71, 0x4d, 0x86, 0xbd,
  0x57, 0xb2, 0xd4, 0xbd, 0x30, 0xfd, 0x51, 0x3d, 0x7f, 0x67, 0x7f, 0x3e,
  0xf4, 0x39, 0x9f, 0xbe, 0x08, 0xda, 0x11, 0xbe, 0xec, 0xdd, 0x86, 0xbe,
  0xb3, 0xb2, 0x2c, 0x3e, 0x9d, 0x46, 0x44, 0x3d, 0x01, 0x7a, 0xac, 0x3e,
  0xb5, 0xb7, 0x1b, 0x3e, 0x90, 0xe3, 0x92, 0x3e, 0x49, 0xed, 0x5a, 0xbe,
  0x74, 0xff, 0x20, 0xbe, 0x4c, 0xe9, 0x0d, 0xbd, 0xa2, 0x8a, 0x13, 0xbe,
  0xe6, 0x6e, 0x6d, 0x3d, 0x5a, 0xde, 0x83, 0x3e, 0x97, 0xee, 0x84, 0xbe,
  0xc5, 0xc2, 0xb7, 0x3e, 0xe9, 0x85, 0xa7, 0xbd, 0x6a, 0x00, 0xb3, 0x3c,
  0x19, 0xbf, 0xc6, 0xbc, 0x22, 0xec, 0x05, 0x3e, 0x14, 0x8e, 0x8f, 0xbe,
  0x4f, 0x7b, 0x53, 0xbe, 0xb5, 0xb0, 0xd7, 0x3d, 0xb4, 0xcb, 0xcf, 0x3c,
  0xa2, 0x4a, 0x1e, 0xbe, 0x32, 0x47, 0x8a, 0x3e, 0xbf, 0x00, 0x7e, 0xbe,
  0xaf, 0xb1, 0x6f, 0x3e, 0xed, 0x74, 0x3d, 0xbe, 0x96, 0xf0, 0xb1, 0xbb,
  0x02, 0x9a, 0x4e, 0xbc, 0xc7, 0xbd, 0xaa, 0xbd, 0xa9, 0x7d, 0x91, 0x3e,
  0x6d, 0x5a, 0xe0, 0x3c, 0x16, 0x27, 0x40, 0xbe, 0xdc, 0x2c, 0x8a, 0x3e,
  0x63, 0x5c, 0x22, 0xbe, 0xbc, 0x20, 0x61, 0x3b, 0x83, 0xe3, 0x39, 0x3e,
  0x62, 0x01, 0x15, 0xbe, 0x8b, 0x63, 0x86, 0xbe, 0x4d, 0x47, 0x6e, 0x3e,
  0xb5, 0xc3, 0x7c, 0x3e, 0x35, 0xba, 0xca, 0xbd, 0x89, 0x44, 0xf6, 0x3d,
  0x77, 0x8c, 0x5f, 0xbe, 0x59, 0x82, 0xa6, 0x3d, 0xa3, 0x3e, 0xc7, 0x3d,
  0x9f, 0x4a, 0x46, 0xbd, 0x32, 0x37, 0x0d, 0xbc, 0x3f, 0x5b, 0x37, 0x3e,
  0x66, 0xdc, 0xfa, 0xbd, 0x3f, 0x61, 0x43, 0x3d, 0xcc, 0xee, 0x73, 0x3e,
  0xca, 0xb3, 0xe6, 0xba, 0x2d, 0xd5, 0xb0, 0x3c, 0x32, 0xff, 0x8d, 0x3e,
  0xbc, 0x15, 0x3f, 0xbd, 0xf1, 0x2e, 0x95, 0xbd, 0xba, 0x01, 0xc2, 0x3d,
  0xf2, 0xed, 0x69, 0x3e, 0x38, 0x29, 0x54, 0xbe, 0x43, 0x8d, 0x52, 0xbe,
  0x08, 0x19, 0xcc, 0xbc, 0xe1, 0x14, 0x49, 0x3e, 0xd6, 0x6f, 0x65, 0x3e,
  0x1c, 0x42, 0xd7, 0xbd, 0xf5, 0xf9, 0xbb, 0x3d, 0x63, 0xd2, 0x7e, 0xbd,
  0xdd, 0xa9, 0x1b, 0x3e, 0xa3, 0xf6, 0xde, 0x3c, 0xb1, 0xa7, 0x81, 0xbe,
  0x7b, 0xee, 0x4e, 0xbe, 0x7a, 0x5c, 0x9e, 0x3e, 0x0b, 0x44, 0x9a, 0xbe,
  0xe1, 0x1e, 0x5d, 0x3e, 0x5f, 0xa5, 0x85, 0x3e, 0x7b, 0x2b, 0x08, 0x3e,
  0x8c, 0xee, 0x64, 0xbe, 0xa3, 0xdc, 0x9f, 0x3e, 0xe5, 0x7f, 0x81, 0x3e,
  0x5c, 0x1a, 0x4f, 0xbe, 0x5c, 0x72, 0xd7, 0x3d, 0xe9, 0xed, 0x8b, 0x3d,
  0x0b, 0xdb, 0x40, 0xbe, 0x4c, 0xf0, 0x8c, 0x3d, 0x28, 0x08, 0x04, 0xbe,
  0x3a, 0xb2, 0x24, 0xbe, 0xf4, 0x03, 0xd2, 0x3d, 0xcf, 0xc9, 0x22, 0x3d,
  0x42, 0x29, 0xb4, 0xbc, 0x74, 0xc9, 0x6c, 0x3e, 0xdd, 0x8b, 0x10, 0xbe,
  0xc2, 0xfe, 0xff, 0xff, 0x04, 0x00, 0x00, 0x00, 0x50, 0x00, 0x00, 0x00,
  0x5c, 0x8c, 0x7b, 0xbc, 0x9d, 0x2b, 0x90, 0x3c, 0xb9, 0x3a, 0xd6, 0x3c,
  0xca, 0x60, 0x10, 0xbd, 0xdc, 0x03, 0xb7, 0xbc, 0x8f, 0x1d, 0xcb, 0xbc,
  0xdc, 0xe6, 0x6f, 0xbd, 0x78, 0x22, 0x43, 0x3d, 0x28, 0xba, 0x3e, 0xbd,
  0xec, 0x3e, 0xa6, 0xba, 0x5d, 0x2c, 0xe8, 0xbc, 0xbf, 0x71, 0x3b, 0x3d,
  0xce, 0xa0, 0x4a, 0xbd, 0xd7, 0x7c, 0xae, 0x3d, 0xd9, 0x2b, 0xf9, 0x3d,
  0x07, 0x6d, 0x6e, 0xbc, 0x14, 0xd9, 0xc4, 0xbc, 0x8c, 0x4e, 0x2f, 0x3b,
  0x36, 0xb0, 0x4d, 0x3c, 0xda, 0x92, 0xc3, 0x3b, 0x1e, 0xff, 0xff, 0xff,
  0x04, 0x00, 0x00, 0x00, 0x0c, 0x00, 0x00, 0x00, 0x29, 0x80, 0x04, 0x3e,
  0xe8, 0xcf, 0x28, 0xbe, 0x8d, 0x1f, 0xac, 0x3c, 0x36, 0xff, 0xff, 0xff,
  0x04, 0x00, 0x00, 0x00, 0x28, 0x00, 0x00, 0x00, 0x27, 0x07, 0xc0, 0xbd,
  0x7c, 0xb1, 0x26, 0xbd, 0x43, 0x13, 0x0f, 0x3e, 0xfb, 0x57, 0x17, 0xbd,
  0xfb, 0x28, 0xde, 0xbd, 0x73, 0x58, 0x53, 0xbd, 0xa0, 0x95, 0x6a, 0xbc,
  0x01, 0x14, 0xc6, 0xbc, 0xbb, 0x17, 0xb1, 0xbd, 0x0d, 0x68, 0x5a, 0x3d,
  0x5c, 0xfa, 0xff, 0xff, 0x60, 0xfa, 0xff, 0xff, 0x0f, 0x00, 0x00, 0x00,
  0x4d, 0x4c, 0x49, 0x52, 0x20, 0x43, 0x6f, 0x6e, 0x76, 0x65, 0x72, 0x74,
  0x65, 0x64, 0x2e, 0x00, 0x01, 0x00, 0x00, 0x00, 0x14, 0x00, 0x00, 0x00,
  0x00, 0x00, 0x0e, 0x00, 0x18, 0x00, 0x14, 0x00, 0x10, 0x00, 0x0c, 0x00,
  0x08, 0x00, 0x04, 0x00, 0x0e, 0x00, 0x00, 0x00, 0x14, 0x00, 0x00, 0x00,
  0x1c, 0x00, 0x00, 0x00, 0x24, 0x01, 0x00, 0x00, 0x28, 0x01, 0x00, 0x00,
  0x2c, 0x01, 0x00, 0x00, 0x04, 0x00, 0x00, 0x00, 0x6d, 0x61, 0x69, 0x6e,
  0x00, 0x00, 0x00, 0x00, 0x04, 0x00, 0x00, 0x00, 0xcc, 0x00, 0x00, 0x00,
  0x84, 0x00, 0x00, 0x00, 0x50, 0x00, 0x00, 0x00, 0x14, 0x00, 0x00, 0x00,
  0x00, 0x00, 0x0e, 0x00, 0x1a, 0x00, 0x14, 0x00, 0x10, 0x00, 0x0c, 0x00,
  0x0b, 0x00, 0x04, 0x00, 0x0e, 0x00, 0x00, 0x00, 0x1c, 0x00, 0x00, 0x00,
  0x00, 0x00, 0x00, 0x09, 0x1c, 0x00, 0x00, 0x00, 0x20, 0x00, 0x00, 0x00,
  0x01, 0x00, 0x00, 0x00, 0x00, 0x00, 0x06, 0x00, 0x08, 0x00, 0x04, 0x00,
  0x06, 0x00, 0x00, 0x00, 0x00, 0x00, 0x80, 0x3f, 0x01, 0x00, 0x00, 0x00,
  0x0a, 0x00, 0x00, 0x00, 0x01, 0x00, 0x00, 0x00, 0x09, 0x00, 0x00, 0x00,
  0x9a, 0xff, 0xff, 0xff, 0x10, 0x00, 0x00, 0x00, 0x00, 0x00, 0x00, 0x08,
  0x0c, 0x00, 0x00, 0x00, 0x10, 0x00, 0x00, 0x00, 0x24, 0xfb, 0xff, 0xff,
  0x01, 0x00, 0x00, 0x00, 0x09, 0x00, 0x00, 0x00, 0x03, 0x00, 0x00, 0x00,
  0x08, 0x00, 0x00, 0x00, 0x06, 0x00, 0x00, 0x00, 0x02, 0x00, 0x00, 0x00,
  0xca, 0xff, 0xff, 0xff, 0x10, 0x00, 0x00, 0x00, 0x00, 0x00, 0x00, 0x08,
  0x10, 0x00, 0x00, 0x00, 0x14, 0x00, 0x00, 0x00, 0xba, 0xff, 0xff, 0xff,
  0x00, 0x00, 0x00, 0x01, 0x01, 0x00, 0x00, 0x00, 0x08, 0x00, 0x00, 0x00,
  0x03, 0x00, 0x00, 0x00, 0x07, 0x00, 0x00, 0x00, 0x05, 0x00, 0x00, 0x00,
  0x01, 0x00, 0x00, 0x00, 0x00, 0x00, 0x0e, 0x00, 0x16, 0x00, 0x00, 0x00,
  0x10, 0x00, 0x0c, 0x00, 0x0b, 0x00, 0x04, 0x00, 0x0e, 0x00, 0x00, 0x00,
  0x18, 0x00, 0x00, 0x00, 0x00, 0x00, 0x00, 0x08, 0x18, 0x00, 0x00, 0x00,
  0x1c, 0x00, 0x00, 0x00, 0x00, 0x00, 0x06, 0x00, 0x08, 0x00, 0x07, 0x00,
  0x06, 0x00, 0x00, 0x00, 0x00, 0x00, 0x00, 0x01, 0x01, 0x00, 0x00, 0x00,
  0x07, 0x00, 0x00, 0x00, 0x03, 0x00, 0x00, 0x00, 0x00, 0x00, 0x00, 0x00,
  0x04, 0x00, 0x00, 0x00, 0x03, 0x00, 0x00, 0x00, 0x01, 0x00, 0x00, 0x00,
  0x0a, 0x00, 0x00, 0x00, 0x01, 0x00, 0x00, 0x00, 0x00, 0x00, 0x00, 0x00,
  0x0b, 0x00, 0x00, 0x00, 0x04, 0x04, 0x00, 0x00, 0x94, 0x03, 0x00, 0x00,
  0x24, 0x03, 0x00, 0x00, 0xd0, 0x02, 0x00, 0x00, 0x88, 0x02, 0x00, 0x00,
  0x3c, 0x02, 0x00, 0x00, 0xf0, 0x01, 0x00, 0x00, 0x68, 0x01, 0x00, 0x00,
  0xd8, 0x00, 0x00, 0x00, 0x60, 0x00, 0x00, 0x00, 0x04, 0x00, 0x00, 0x00,
  0x3e, 0xfc, 0xff, 0xff, 0x00, 0x00, 0x00, 0x01, 0x14, 0x00, 0x00, 0x00,
  0x1c, 0x00, 0x00, 0x00, 0x1c, 0x00, 0x00, 0x00, 0x0b, 0x00, 0x00, 0x00,
  0x34, 0x00, 0x00, 0x00, 0x02, 0x00, 0x00, 0x00, 0xff, 0xff, 0xff, 0xff,
  0x03, 0x00, 0x00, 0x00, 0x28, 0xfc, 0xff, 0xff, 0x19, 0x00, 0x00, 0x00,
  0x53, 0x74, 0x61, 0x74, 0x65, 0x66, 0x75, 0x6c, 0x50, 0x61, 0x72, 0x74,
  0x69, 0x74, 0x69, 0x6f, 0x6e, 0x65, 0x64, 0x43, 0x61, 0x6c, 0x6c, 0x3a,
  0x30, 0x00, 0x00, 0x00, 0x02, 0x00, 0x00, 0x00, 0x01, 0x00, 0x00, 0x00,
  0x03, 0x00, 0x00, 0x00, 0x96, 0xfc, 0xff, 0xff, 0x00, 0x00, 0x00, 0x01,
  0x14, 0x00, 0x00, 0x00, 0x1c, 0x00, 0x00, 0x00, 0x1c, 0x00, 0x00, 0x00,
  0x0a, 0x00, 0x00, 0x00, 0x50, 0x00, 0x00, 0x00, 0x02, 0x00, 0x00, 0x00,
  0xff, 0xff, 0xff, 0xff, 0x03, 0x00, 0x00, 0x00, 0x80, 0xfc, 0xff, 0xff,
  0x34, 0x00, 0x00, 0x00, 0x73, 0x65, 0x71, 0x75, 0x65, 0x6e, 0x74, 0x69,
  0x61, 0x6c, 0x2f, 0x64, 0x65, 0x6e, 0x73, 0x65, 0x5f, 0x32, 0x2f, 0x4d,
  0x61, 0x74, 0x4d, 0x75, 0x6c, 0x3b, 0x73, 0x65, 0x71, 0x75, 0x65, 0x6e,
  0x74, 0x69, 0x61, 0x6c, 0x2f, 0x64, 0x65, 0x6e, 0x73, 0x65, 0x5f, 0x32,
  0x2f, 0x42, 0x69, 0x61, 0x73, 0x41, 0x64, 0x64, 0x00, 0x00, 0x00, 0x00,
  0x02, 0x00, 0x00, 0x00, 0x01, 0x00, 0x00, 0x00, 0x03, 0x00, 0x00, 0x00,
  0x0a, 0xfd, 0xff, 0xff, 0x00, 0x00, 0x00, 0x01, 0x14, 0x00, 0x00, 0x00,
  0x1c, 0x00, 0x00, 0x00, 0x1c, 0x00, 0x00, 0x00, 0x09, 0x00, 0x00, 0x00,
  0x68, 0x00, 0x00, 0x00, 0x02, 0x00, 0x00, 0x00, 0xff, 0xff, 0xff, 0xff,
  0x0a, 0x00, 0x00, 0x00, 0xf4, 0xfc, 0xff, 0xff, 0x4c, 0x00, 0x00, 0x00,
  0x73, 0x65, 0x71, 0x75, 0x65, 0x6e, 0x74, 0x69, 0x61, 0x6c, 0x2f, 0x64,
  0x65, 0x6e, 0x73, 0x65, 0x5f, 0x31, 0x2f, 0x4d, 0x61, 0x74, 0x4d, 0x75,
  0x6c, 0x3b, 0x73, 0x65, 0x71, 0x75, 0x65, 0x6e, 0x74, 0x69, 0x61, 0x6c,
  0x2f, 0x64, 0x65, 0x6e, 0x73, 0x65, 0x5f, 0x31, 0x2f, 0x52, 0x65, 0x6c,
  0x75, 0x3b, 0x73, 0x65, 0x71, 0x75, 0x65, 0x6e, 0x74, 0x69, 0x61, 0x6c,
  0x2f, 0x64, 0x65, 0x6e, 0x73, 0x65, 0x5f, 0x31, 0x2f, 0x42, 0x69, 0x61,
  0x73, 0x41, 0x64, 0x64, 0x00, 0x00, 0x00, 0x00, 0x02, 0x00, 0x00, 0x00,
  0x01, 0x00, 0x00, 0x00, 0x0a, 0x00, 0x00, 0x00, 0x96, 0xfd, 0xff, 0xff,
  0x00, 0x00, 0x00, 0x01, 0x14, 0x00, 0x00, 0x00, 0x1c, 0x00, 0x00, 0x00,
  0x1c, 0x00, 0x00, 0x00, 0x08, 0x00, 0x00, 0x00, 0x60, 0x00, 0x00, 0x00,
  0x02, 0x00, 0x00, 0x00, 0xff, 0xff, 0xff, 0xff, 0x14, 0x00, 0x00, 0x00,
  0x80, 0xfd, 0xff, 0xff, 0x46, 0x00, 0x00, 0x00, 0x73, 0x65, 0x71, 0x75,
  0x65, 0x6e, 0x74, 0x69, 0x61, 0x6c, 0x2f, 0x64, 0x65, 0x6e, 0x73, 0x65,
  0x2f, 0x4d, 0x61, 0x74, 0x4d, 0x75, 0x6c, 0x3b, 0x73, 0x65, 0x71, 0x75,
  0x65, 0x6e, 0x74, 0x69, 0x61, 0x6c, 0x2f, 0x64, 0x65, 0x6e, 0x73, 0x65,
  0x2f, 0x52, 0x65, 0x6c, 0x75, 0x3b, 0x73, 0x65, 0x71, 0x75, 0x65, 0x6e,
  0x74, 0x69, 0x61, 0x6c, 0x2f, 0x64, 0x65, 0x6e, 0x73, 0x65, 0x2f, 0x42,
  0x69, 0x61, 0x73, 0x41, 0x64, 0x64, 0x00, 0x00, 0x02, 0x00, 0x00, 0x00,
  0x01, 0x00, 0x00, 0x00, 0x14, 0x00, 0x00, 0x00, 0x86, 0xfe, 0xff, 0xff,
  0x00, 0x00, 0x00, 0x01, 0x10, 0x00, 0x00, 0x00, 0x10, 0x00, 0x00, 0x00,
  0x07, 0x00, 0x00, 0x00, 0x28, 0x00, 0x00, 0x00, 0xf4, 0xfd, 0xff, 0xff,
  0x19, 0x00, 0x00, 0x00, 0x73, 0x65, 0x71, 0x75, 0x65, 0x6e, 0x74, 0x69,
  0x61, 0x6c, 0x2f, 0x64, 0x65, 0x6e, 0x73, 0x65, 0x5f, 0x32, 0x2f, 0x4d,
  0x61, 0x74, 0x4d, 0x75, 0x6c, 0x00, 0x00, 0x00, 0x02, 0x00, 0x00, 0x00,
  0x03, 0x00, 0x00, 0x00, 0x0a, 0x00, 0x00, 0x00, 0xce, 0xfe, 0xff, 0xff,
  0x00, 0x00, 0x00, 0x01, 0x10, 0x00, 0x00, 0x00, 0x10, 0x00, 0x00, 0x00,
  0x06, 0x00, 0x00, 0x00, 0x28, 0x00, 0x00, 0x00, 0x3c, 0xfe, 0xff, 0xff,
  0x19, 0x00, 0x00, 0x00, 0x73, 0x65, 0x71, 0x75, 0x65, 0x6e, 0x74, 0x69,
  0x61, 0x6c, 0x2f, 0x64, 0x65, 0x6e, 0x73, 0x65, 0x5f, 0x31, 0x2f, 0x4d,
  0x61, 0x74, 0x4d, 0x75, 0x6c, 0x00, 0x00, 0x00, 0x02, 0x00, 0x00, 0x00,
  0x0a, 0x00, 0x00, 0x00, 0x14, 0x00, 0x00, 0x00, 0x16, 0xff, 0xff, 0xff,
  0x00, 0x00, 0x00, 0x01, 0x10, 0x00, 0x00, 0x00, 0x10, 0x00, 0x00, 0x00,
  0x05, 0x00, 0x00, 0x00, 0x24, 0x00, 0x00, 0x00, 0x84, 0xfe, 0xff, 0xff,
  0x17, 0x00, 0x00, 0x00, 0x73, 0x65, 0x71, 0x75, 0x65, 0x6e, 0x74, 0x69,
  0x61, 0x6c, 0x2f, 0x64, 0x65, 0x6e, 0x73, 0x65, 0x2f, 0x4d, 0x61, 0x74,
  0x4d, 0x75, 0x6c, 0x00, 0x02, 0x00, 0x00, 0x00, 0x14, 0x00, 0x00, 0x00,
  0x2a, 0x00, 0x00, 0x00, 0x5a, 0xff, 0xff, 0xff, 0x00, 0x00, 0x00, 0x01,
  0x10, 0x00, 0x00, 0x00, 0x10, 0x00, 0x00, 0x00, 0x04, 0x00, 0x00, 0x00,
  0x34, 0x00, 0x00, 0x00, 0xc8, 0xfe, 0xff, 0xff, 0x27, 0x00, 0x00, 0x00,
  0x73, 0x65, 0x71, 0x75, 0x65, 0x6e, 0x74, 0x69, 0x61, 0x6c, 0x2f, 0x64,
  0x65, 0x6e, 0x73, 0x65, 0x2f, 0x42, 0x69, 0x61, 0x73, 0x41, 0x64, 0x64,
  0x2f, 0x52, 0x65, 0x61, 0x64, 0x56, 0x61, 0x72, 0x69, 0x61, 0x62, 0x6c,
  0x65, 0x4f, 0x70, 0x00, 0x01, 0x00, 0x00, 0x00, 0x14, 0x00, 0x00, 0x00,
  0xaa, 0xff, 0xff, 0xff, 0x00, 0x00, 0x00, 0x01, 0x10, 0x00, 0x00, 0x00,
  0x10, 0x00, 0x00, 0x00, 0x03, 0x00, 0x00, 0x00, 0x38, 0x00, 0x00, 0x00,
  0x18, 0xff, 0xff, 0xff, 0x29, 0x00, 0x00, 0x00, 0x73, 0x65, 0x71, 0x75,
  0x65, 0x6e, 0x74, 0x69, 0x61, 0x6c, 0x2f, 0x64, 0x65, 0x6e, 0x73, 0x65,
  0x5f, 0x32, 0x2f, 0x42, 0x69, 0x61, 0x73, 0x41, 0x64, 0x64, 0x2f, 0x52,
  0x65, 0x61, 0x64, 0x56, 0x61, 0x72, 0x69, 0x61, 0x62, 0x6c, 0x65, 0x4f,
  0x70, 0x00, 0x00, 0x00, 0x01, 0x00, 0x00, 0x00, 0x03, 0x00, 0x00, 0x00,
  0x00, 0x00, 0x16, 0x00, 0x18, 0x00, 0x14, 0x00, 0x00, 0x00, 0x10, 0x00,
  0x0c, 0x00, 0x08, 0x00, 0x00, 0x00, 0x00, 0x00, 0x00, 0x00, 0x07, 0x00,
  0x16, 0x00, 0x00, 0x00, 0x00, 0x00, 0x00, 0x01, 0x10, 0x00, 0x00, 0x00,
  0x10, 0x00, 0x00, 0x00, 0x02, 0x00, 0x00, 0x00, 0x38, 0x00, 0x00, 0x00,
  0x84, 0xff, 0xff, 0xff, 0x29, 0x00, 0x00, 0x00, 0x73, 0x65, 0x71, 0x75,
  0x65, 0x6e, 0x74, 0x69, 0x61, 0x6c, 0x2f, 0x64, 0x65, 0x6e, 0x73, 0x65,
  0x5f, 0x31, 0x2f, 0x42, 0x69, 0x61, 0x73, 0x41, 0x64, 0x64, 0x2f, 0x52,
  0x65, 0x61, 0x64, 0x56, 0x61, 0x72, 0x69, 0x61, 0x62, 0x6c, 0x65, 0x4f,
  0x70, 0x00, 0x00, 0x00, 0x01, 0x00, 0x00, 0x00, 0x0a, 0x00, 0x00, 0x00,
  0x00, 0x00, 0x16, 0x00, 0x1c, 0x00, 0x18, 0x00, 0x00, 0x00, 0x14, 0x00,
  0x10, 0x00, 0x0c, 0x00, 0x00, 0x00, 0x00, 0x00, 0x08, 0x00, 0x07, 0x00,
  0x16, 0x00, 0x00, 0x00, 0x00, 0x00, 0x00, 0x01, 0x14, 0x00, 0x00, 0x00,
  0x20, 0x00, 0x00, 0x00, 0x20, 0x00, 0x00, 0x00, 0x01, 0x00, 0x00, 0x00,
  0x3c, 0x00, 0x00, 0x00, 0x02, 0x00, 0x00, 0x00, 0xff, 0xff, 0xff, 0xff,
  0x2a, 0x00, 0x00, 0x00, 0x04, 0x00, 0x04, 0x00, 0x04, 0x00, 0x00, 0x00,
  0x1d, 0x00, 0x00, 0x00, 0x73, 0x65, 0x72, 0x76, 0x69, 0x6e, 0x67, 0x5f,
  0x64, 0x65, 0x66, 0x61, 0x75, 0x6c, 0x74, 0x5f, 0x64, 0x65, 0x6e, 0x73,
  0x65, 0x5f, 0x69, 0x6e, 0x70, 0x75, 0x74, 0x3a, 0x30, 0x00, 0x00, 0x00,
  0x02, 0x00, 0x00, 0x00, 0x01, 0x00, 0x00, 0x00, 0x2a, 0x00, 0x00, 0x00,
  0x02, 0x00, 0x00, 0x00, 0x20, 0x00, 0x00, 0x00, 0x04, 0x00, 0x00, 0x00,
  0xf4, 0xff, 0xff, 0xff, 0x19, 0x00, 0x00, 0x00, 0x00, 0x00, 0x00, 0x19,
  0x0c, 0x00, 0x0c, 0x00, 0x0b, 0x00, 0x00, 0x00, 0x00, 0x00, 0x04, 0x00,
  0x0c, 0x00, 0x00, 0x00, 0x09, 0x00, 0x00, 0x00, 0x00, 0x00, 0x00, 0x09};
unsigned int model_tflite_len = 15240;

unsigned char* get_model_data() {
  return (unsigned char*)g_tof_detector_model_data;
}
