/* Copyright 2019 The TensorFlow Authors. All Rights Reserved.

Licensed under the Apache License, Version 2.0 (the "License");
you may not use this file except in compliance with the License.
You may obtain a copy of the License at

    http://www.apache.org/licenses/LICENSE-2.0

Unless required by applicable law or agreed to in writing, software
distributed under the License is distributed on an "AS IS" BASIS,
WITHOUT WARRANTIES OR CONDITIONS OF ANY KIND, either express or implied.
See the License for the specific language governing permissions and
limitations under the License.
==============================================================================*/

// Automatically created from a TensorFlow Lite flatbuffer using the command:
// xxd -i magic_wand_model.tflite > magic_wand_model_data.cc
// See the README for a full description of the creation process.

// We need to keep the data array aligned on some architectures.
#ifdef __has_attribute
#define HAVE_ATTRIBUTE(x) __has_attribute(x)
#else
#define HAVE_ATTRIBUTE(x) 0
#endif
#if HAVE_ATTRIBUTE(aligned) || (defined(__GNUC__) && !defined(__clang__))
#define DATA_ALIGN_ATTRIBUTE __attribute__((aligned(4)))
#else
#define DATA_ALIGN_ATTRIBUTE
#endif

const unsigned char g_tof_detector_model_data[] DATA_ALIGN_ATTRIBUTE = {
  0x1c, 0x00, 0x00, 0x00, 0x54, 0x46, 0x4c, 0x33, 0x14, 0x00, 0x20, 0x00,
  0x1c, 0x00, 0x18, 0x00, 0x14, 0x00, 0x10, 0x00, 0x0c, 0x00, 0x00, 0x00,
  0x08, 0x00, 0x04, 0x00, 0x14, 0x00, 0x00, 0x00, 0x1c, 0x00, 0x00, 0x00,
  0x90, 0x00, 0x00, 0x00, 0xe8, 0x00, 0x00, 0x00, 0x38, 0x13, 0x00, 0x00,
  0x48, 0x13, 0x00, 0x00, 0x04, 0x19, 0x00, 0x00, 0x03, 0x00, 0x00, 0x00,
  0x01, 0x00, 0x00, 0x00, 0x10, 0x00, 0x00, 0x00, 0x00, 0x00, 0x0a, 0x00,
  0x10, 0x00, 0x0c, 0x00, 0x08, 0x00, 0x04, 0x00, 0x0a, 0x00, 0x00, 0x00,
  0x0c, 0x00, 0x00, 0x00, 0x1c, 0x00, 0x00, 0x00, 0x38, 0x00, 0x00, 0x00,
  0x0f, 0x00, 0x00, 0x00, 0x73, 0x65, 0x72, 0x76, 0x69, 0x6e, 0x67, 0x5f,
  0x64, 0x65, 0x66, 0x61, 0x75, 0x6c, 0x74, 0x00, 0x01, 0x00, 0x00, 0x00,
  0x04, 0x00, 0x00, 0x00, 0x98, 0xff, 0xff, 0xff, 0x0a, 0x00, 0x00, 0x00,
  0x04, 0x00, 0x00, 0x00, 0x07, 0x00, 0x00, 0x00, 0x64, 0x65, 0x6e, 0x73,
  0x65, 0x5f, 0x32, 0x00, 0x01, 0x00, 0x00, 0x00, 0x04, 0x00, 0x00, 0x00,
  0xaa, 0xec, 0xff, 0xff, 0x04, 0x00, 0x00, 0x00, 0x0b, 0x00, 0x00, 0x00,
  0x64, 0x65, 0x6e, 0x73, 0x65, 0x5f, 0x69, 0x6e, 0x70, 0x75, 0x74, 0x00,
  0x02, 0x00, 0x00, 0x00, 0x34, 0x00, 0x00, 0x00, 0x04, 0x00, 0x00, 0x00,
  0xdc, 0xff, 0xff, 0xff, 0x0d, 0x00, 0x00, 0x00, 0x04, 0x00, 0x00, 0x00,
  0x13, 0x00, 0x00, 0x00, 0x43, 0x4f, 0x4e, 0x56, 0x45, 0x52, 0x53, 0x49,
  0x4f, 0x4e, 0x5f, 0x4d, 0x45, 0x54, 0x41, 0x44, 0x41, 0x54, 0x41, 0x00,
  0x08, 0x00, 0x0c, 0x00, 0x08, 0x00, 0x04, 0x00, 0x08, 0x00, 0x00, 0x00,
  0x0c, 0x00, 0x00, 0x00, 0x04, 0x00, 0x00, 0x00, 0x13, 0x00, 0x00, 0x00,
  0x6d, 0x69, 0x6e, 0x5f, 0x72, 0x75, 0x6e, 0x74, 0x69, 0x6d, 0x65, 0x5f,
  0x76, 0x65, 0x72, 0x73, 0x69, 0x6f, 0x6e, 0x00, 0x0e, 0x00, 0x00, 0x00,
  0x4c, 0x12, 0x00, 0x00, 0x44, 0x12, 0x00, 0x00, 0x0c, 0x12, 0x00, 0x00,
  0xf0, 0x11, 0x00, 0x00, 0x90, 0x11, 0x00, 0x00, 0x60, 0x04, 0x00, 0x00,
  0x30, 0x01, 0x00, 0x00, 0xa8, 0x00, 0x00, 0x00, 0xa0, 0x00, 0x00, 0x00,
  0x98, 0x00, 0x00, 0x00, 0x90, 0x00, 0x00, 0x00, 0x88, 0x00, 0x00, 0x00,
  0x68, 0x00, 0x00, 0x00, 0x04, 0x00, 0x00, 0x00, 0x5a, 0xed, 0xff, 0xff,
  0x04, 0x00, 0x00, 0x00, 0x54, 0x00, 0x00, 0x00, 0x0c, 0x00, 0x00, 0x00,
  0x08, 0x00, 0x0e, 0x00, 0x08, 0x00, 0x04, 0x00, 0x08, 0x00, 0x00, 0x00,
  0x10, 0x00, 0x00, 0x00, 0x24, 0x00, 0x00, 0x00, 0x00, 0x00, 0x06, 0x00,
  0x08, 0x00, 0x04, 0x00, 0x06, 0x00, 0x00, 0x00, 0x04, 0x00, 0x00, 0x00,
  0x00, 0x00, 0x00, 0x00, 0x00, 0x00, 0x0a, 0x00, 0x10, 0x00, 0x0c, 0x00,
  0x08, 0x00, 0x04, 0x00, 0x0a, 0x00, 0x00, 0x00, 0x02, 0x00, 0x00, 0x00,
  0x02, 0x00, 0x00, 0x00, 0x04, 0x00, 0x00, 0x00, 0x06, 0x00, 0x00, 0x00,
  0x32, 0x2e, 0x31, 0x35, 0x2e, 0x30, 0x00, 0x00, 0xba, 0xed, 0xff, 0xff,
  0x04, 0x00, 0x00, 0x00, 0x10, 0x00, 0x00, 0x00, 0x31, 0x2e, 0x35, 0x2e,
  0x30, 0x00, 0x00, 0x00, 0x00, 0x00, 0x00, 0x00, 0x00, 0x00, 0x00, 0x00,
  0xc8, 0xe8, 0xff, 0xff, 0xcc, 0xe8, 0xff, 0xff, 0xd0, 0xe8, 0xff, 0xff,
  0xd4, 0xe8, 0xff, 0xff, 0xe6, 0xed, 0xff, 0xff, 0x04, 0x00, 0x00, 0x00,
  0x78, 0x00, 0x00, 0x00, 0x98, 0x0e, 0xa0, 0x3e, 0x2c, 0xf3, 0xf9, 0x3d,
  0x0f, 0xc0, 0x16, 0xbd, 0x7f, 0x7c, 0xda, 0x3e, 0xe0, 0x33, 0x20, 0xbf,
  0x6c, 0x99, 0x5a, 0x3e, 0xee, 0x68, 0x0f, 0x3f, 0xf7, 0xf0, 0xe6, 0xbd,
  0x6b, 0x3c, 0xe2, 0x3e, 0xd8, 0x81, 0x00, 0x3e, 0xee, 0x83, 0x23, 0xbe,
  0x32, 0x31, 0xa8, 0x3e, 0xd8, 0x6b, 0x05, 0x3f, 0x30, 0x8b, 0x3d, 0xbe,
  0x77, 0x64, 0xa2, 0x3e, 0xe1, 0x0d, 0x4e, 0xbe, 0xde, 0xa4, 0x06, 0xbf,
  0xa0, 0x50, 0x9a, 0x3e, 0x97, 0xc0, 0x1d, 0xbf, 0x66, 0xc9, 0x91, 0xbe,
  0x99, 0x36, 0x43, 0x3e, 0x8c, 0xbf, 0x99, 0x3e, 0x0e, 0x2d, 0xa1, 0xbe,
  0xbe, 0x50, 0x18, 0x3f, 0x2d, 0xe1, 0xfe, 0xbd, 0xbe, 0x1b, 0xf4, 0xbe,
  0xbe, 0xa0, 0x18, 0xbf, 0x27, 0xf0, 0x5d, 0xbe, 0x73, 0x29, 0x91, 0x3e,
  0xc6, 0x48, 0xa8, 0x3e, 0x6a, 0xee, 0xff, 0xff, 0x04, 0x00, 0x00, 0x00,
  0x20, 0x03, 0x00, 0x00, 0x5a, 0x02, 0xc9, 0x3e, 0x10, 0xf3, 0xc6, 0x3e,
  0x9f, 0x30, 0x06, 0xbe, 0x84, 0x37, 0x34, 0xbe, 0x0f, 0x7e, 0x85, 0x3e,
  0xea, 0xc1, 0x9f, 0x3e, 0x35, 0x5d, 0x30, 0x3e, 0x9f, 0x60, 0xab, 0xbe,
  0x0d, 0x61, 0x61, 0x3d, 0xc1, 0xf0, 0x98, 0xbe, 0x79, 0xe2, 0xd0, 0xbe,
  0xc0, 0x98, 0xb7, 0x3e, 0x5c, 0x08, 0xa9, 0x3e, 0xc5, 0x68, 0x50, 0xbe,
  0x23, 0x59, 0xc4, 0xbe, 0x50, 0x25, 0x50, 0x3e, 0x8e, 0xb0, 0x97, 0xbd,
  0x96, 0x71, 0x07, 0x3c, 0x4c, 0x97, 0x14, 0xbe, 0x61, 0xb9, 0xcd, 0xbe,
  0x12, 0x4f, 0x7a, 0xbe, 0x34, 0x47, 0x1f, 0xbe, 0xec, 0xf9, 0xf4, 0x3e,
  0xc3, 0xa4, 0x99, 0xbe, 0xc1, 0x47, 0x66, 0x3e, 0x01, 0x07, 0x40, 0x3e,
  0x93, 0x4f, 0x02, 0x3f, 0xba, 0xdb, 0x12, 0x3e, 0xf5, 0x6d, 0x5a, 0x3e,
  0x86, 0x58, 0xc7, 0x3d, 0x21, 0xf9, 0x96, 0x3e, 0xc4, 0xd8, 0xc2, 0xbe,
  0xab, 0x1f, 0x97, 0x3e, 0xef, 0x85, 0x83, 0x3e, 0xef, 0x07, 0xc8, 0xbe,
  0xb6, 0x70, 0xb9, 0xbe, 0xef, 0xd2, 0x1c, 0xbe, 0x91, 0x82, 0x1a, 0xbe,
  0x10, 0x67, 0xf5, 0xbc, 0x57, 0xb7, 0x36, 0xbe, 0x96, 0x42, 0x47, 0x3e,
  0x20, 0xff, 0x9d, 0x3d, 0x49, 0x69, 0x3b, 0xbe, 0xa4, 0x36, 0x43, 0x3e,
  0xc3, 0x3f, 0x13, 0xbe, 0x18, 0x04, 0xac, 0x3e, 0xda, 0x6e, 0xa8, 0x3e,
  0xeb, 0xc8, 0x90, 0x3e, 0x97, 0x6d, 0x91, 0xbe, 0xe3, 0x3b, 0x82, 0x3d,
  0xd7, 0x82, 0xfc, 0x3e, 0x9a, 0x74, 0xf1, 0x3d, 0x81, 0x2c, 0xc7, 0xbe,
  0xce, 0x9b, 0xc6, 0x3e, 0xac, 0x83, 0xb8, 0xbd, 0x5c, 0xe0, 0x9c, 0xbd,
  0x6e, 0x3c, 0xfc, 0x3c, 0x4b, 0x90, 0xc1, 0xbe, 0xf0, 0xfa, 0x46, 0xbe,
  0x0e, 0x00, 0x9d, 0x3e, 0x16, 0xbc, 0x5f, 0x3e, 0xfc, 0x84, 0x5f, 0x3e,
  0x77, 0x39, 0x86, 0xbc, 0x79, 0x2c, 0x84, 0xbe, 0x69, 0xf6, 0xad, 0xbc,
  0x00, 0x81, 0xcd, 0xbe, 0x4a, 0x53, 0xf0, 0xbe, 0xb3, 0x5e, 0x19, 0xbe,
  0x52, 0x85, 0xdd, 0xbe, 0x9a, 0x6a, 0xba, 0xbe, 0x34, 0x14, 0xaa, 0x3d,
  0xde, 0xc7, 0xc9, 0xbd, 0x47, 0xe0, 0x11, 0x3e, 0x70, 0xb2, 0x88, 0x3d,
  0xfa, 0x7e, 0x48, 0x3d, 0x1a, 0x64, 0x90, 0xbe, 0xc2, 0xb6, 0x0e, 0x3e,
  0x2f, 0xa1, 0x0d, 0xbd, 0x35, 0x00, 0xc7, 0x3e, 0x1a, 0x81, 0x9d, 0xbe,
  0x25, 0x7e, 0x61, 0xbb, 0xd4, 0x8a, 0xdb, 0x3e, 0x52, 0x62, 0x9c, 0x3e,
  0x54, 0xd0, 0x3c, 0x3e, 0x0b, 0x6d, 0xd1, 0xbe, 0x20, 0x6c, 0xe8, 0xbc,
  0x5d, 0x26, 0x37, 0x3e, 0x2e, 0x56, 0xd1, 0xbe, 0xac, 0x2a, 0x2d, 0x3e,
  0x12, 0x90, 0xb1, 0xbe, 0xdd, 0x89, 0x85, 0xbc, 0xd2, 0x11, 0x22, 0xbe,
  0x32, 0xd0, 0x5d, 0xbe, 0xf9, 0xe9, 0x92, 0x3e, 0xd4, 0x64, 0xb1, 0x3e,
  0x8b, 0xc8, 0xf3, 0xbd, 0xb3, 0xc3, 0x51, 0xbd, 0x31, 0x2f, 0xd4, 0x3e,
  0xcd, 0x46, 0xf6, 0xbd, 0x50, 0xba, 0x8f, 0xbe, 0xba, 0xec, 0x91, 0x3d,
  0x20, 0x59, 0xc1, 0x3e, 0xd8, 0xbe, 0xc3, 0xbb, 0xc6, 0x54, 0x01, 0xbe,
  0x94, 0x5c, 0x33, 0x3d, 0xbf, 0x8b, 0xd2, 0xbe, 0x93, 0xa5, 0xee, 0x3d,
  0xd7, 0xd1, 0x7a, 0x3e, 0xe9, 0xff, 0xa6, 0x3e, 0x7d, 0xdb, 0xfb, 0xbd,
  0x8f, 0xfc, 0x2a, 0x3e, 0x2f, 0xe9, 0x6f, 0x3e, 0xb1, 0xef, 0x56, 0xbe,
  0x55, 0x2c, 0x44, 0x3e, 0xe0, 0x58, 0x6d, 0x3d, 0xf4, 0x07, 0xc2, 0x3e,
  0x2f, 0xfd, 0x7c, 0xbd, 0x70, 0x54, 0xb8, 0x3e, 0xa3, 0xfb, 0x90, 0xbc,
  0x10, 0x67, 0xda, 0xbe, 0x18, 0x48, 0xb2, 0xbe, 0x1e, 0x2f, 0x14, 0xbe,
  0x2d, 0xe1, 0xf0, 0x3d, 0x0f, 0x9c, 0x4b, 0xbe, 0x2d, 0x66, 0xaf, 0x3e,
  0x93, 0x30, 0x3c, 0x3e, 0x84, 0xa4, 0xce, 0x3e, 0x3f, 0x46, 0x05, 0xbd,
  0x72, 0x28, 0xdc, 0x3c, 0xd9, 0x21, 0x4d, 0xbe, 0x81, 0x6e, 0x0f, 0xbe,
  0x95, 0xb0, 0xd4, 0x3e, 0xb9, 0x30, 0x58, 0xbd, 0x9d, 0xf3, 0xca, 0xbe,
  0xc5, 0x3d, 0x9a, 0xbc, 0x50, 0xa8, 0x8a, 0x3e, 0x34, 0x57, 0xc1, 0x3c,
  0xa6, 0x8f, 0x55, 0x3e, 0x94, 0x5a, 0xbe, 0x3e, 0x41, 0x53, 0xbd, 0x3e,
  0x56, 0x2d, 0x1a, 0x3e, 0x78, 0x5a, 0x97, 0xbd, 0xe1, 0xf4, 0x50, 0xbe,
  0xff, 0x00, 0xcf, 0xbd, 0x4d, 0xd6, 0xcd, 0xbd, 0x47, 0x83, 0x85, 0xbe,
  0x6b, 0xed, 0x88, 0xbe, 0xb4, 0xbb, 0xfd, 0x3e, 0x18, 0x0f, 0xe7, 0xbe,
  0x3f, 0x54, 0xc0, 0xbd, 0x62, 0x0a, 0xd0, 0xbe, 0x83, 0xff, 0xd0, 0xbe,
  0x13, 0x26, 0xb2, 0x3e, 0xb3, 0xf0, 0xf4, 0x39, 0x45, 0xc2, 0x90, 0x3e,
  0x6f, 0x71, 0xdb, 0x3e, 0x53, 0x69, 0xc2, 0x3e, 0xf4, 0x87, 0x92, 0x3c,
  0x7f, 0x20, 0x9a, 0xbe, 0x6a, 0x46, 0xec, 0xbd, 0xb7, 0x9f, 0xd4, 0xbe,
  0xd2, 0x26, 0x8f, 0xbe, 0x02, 0x41, 0xb5, 0x3d, 0xef, 0x6e, 0xeb, 0xbe,
  0x48, 0x68, 0xea, 0xbd, 0xd0, 0xde, 0xb3, 0x3e, 0x4f, 0xc2, 0xc3, 0x3e,
  0xd6, 0x9d, 0x31, 0xbe, 0x72, 0xbd, 0x9e, 0x3b, 0x4c, 0x5c, 0x8d, 0x3e,
  0xf7, 0xf1, 0x86, 0x3e, 0xde, 0x0d, 0xdc, 0xbe, 0x9e, 0xea, 0x47, 0xbe,
  0xbe, 0x37, 0x99, 0x3e, 0x89, 0x5d, 0x36, 0xbe, 0xb8, 0x31, 0xd5, 0x3d,
  0x81, 0x51, 0x98, 0xbe, 0x32, 0xae, 0xce, 0x3e, 0xab, 0xd9, 0x4b, 0x3e,
  0xcc, 0xd0, 0xb4, 0x3d, 0x40, 0x4f, 0xb1, 0x3e, 0x82, 0xb8, 0x3b, 0xbe,
  0x51, 0xb1, 0xb2, 0xbe, 0x7f, 0x30, 0xbe, 0x3d, 0x4b, 0xab, 0x28, 0xbe,
  0xa3, 0xc0, 0x8e, 0x3e, 0x5c, 0x24, 0xc5, 0xbd, 0x68, 0x8f, 0x51, 0x3e,
  0xbd, 0x0f, 0x04, 0x3b, 0x8e, 0x43, 0x9c, 0x3e, 0x51, 0xa7, 0x61, 0xbe,
  0x5f, 0xc1, 0x1f, 0x3e, 0x6f, 0x5f, 0x58, 0xbe, 0xb7, 0xf5, 0x1b, 0x3e,
  0x43, 0x70, 0x2a, 0xbe, 0x8f, 0x85, 0x94, 0xbe, 0x78, 0x0a, 0x47, 0x3e,
  0x96, 0x23, 0x64, 0xbe, 0xff, 0x0a, 0x1f, 0xbe, 0xd4, 0x4d, 0xd9, 0xbe,
  0x96, 0xf1, 0xff, 0xff, 0x04, 0x00, 0x00, 0x00, 0x20, 0x0d, 0x00, 0x00,
  0x7f, 0x56, 0x8d, 0xbe, 0x25, 0xa4, 0xa8, 0xbe, 0x05, 0x23, 0xcc, 0xbd,
  0x3c, 0x81, 0x66, 0x3c, 0x9f, 0x4f, 0xab, 0xbd, 0x68, 0x2b, 0x41, 0xba,
  0x70, 0x82, 0xf2, 0x3d, 0x98, 0xd5, 0x3a, 0x3e, 0xe5, 0xfc, 0xe2, 0xbd,
  0x57, 0x39, 0x9a, 0x3e, 0x43, 0xc2, 0xea, 0x3c, 0xdc, 0x5c, 0x6b, 0x3e,
  0x57, 0xdb, 0xc7, 0x3e, 0x8b, 0x8e, 0x4a, 0xbe, 0xe9, 0xe8, 0x49, 0xbe,
  0xd0, 0x93, 0x0f, 0xbe, 0x4f, 0xfc, 0x84, 0xbe, 0x10, 0x0e, 0x0c, 0x3d,
  0x83, 0xdb, 0x0c, 0x3e, 0x1d, 0x97, 0x47, 0xbd, 0x7c, 0x88, 0x4f, 0xbe,
  0x43, 0x37, 0x92, 0x3e, 0x25, 0xee, 0x3a, 0x3e, 0x73, 0x23, 0x47, 0x3e,
  0xe7, 0x3e, 0xf8, 0x3d, 0x13, 0x85, 0xb5, 0x3e, 0xa4, 0x2d, 0xbe, 0x3e,
  0x62, 0xd9, 0xa7, 0x3b, 0xcf, 0xb8, 0x69, 0x3e, 0x66, 0x6e, 0x80, 0x3e,
  0x45, 0xa2, 0x48, 0xbe, 0x36, 0xc9, 0x4a, 0xbd, 0x3e, 0x00, 0xac, 0x3e,
  0x26, 0xe8, 0x30, 0xbc, 0xac, 0xab, 0xde, 0x3d, 0x78, 0xd9, 0x9b, 0x3e,
  0x60, 0x17, 0xcb, 0xbd, 0xdb, 0x12, 0x58, 0x3e, 0xd9, 0xa0, 0x23, 0x3e,
  0xa5, 0x64, 0x8b, 0xbb, 0x89, 0x34, 0xad, 0x3e, 0x95, 0xb9, 0xe4, 0x3d,
  0x64, 0xc5, 0x95, 0x3e, 0x50, 0x58, 0x9e, 0x3e, 0xf9, 0x15, 0x3c, 0xbe,
  0xf5, 0x60, 0x8e, 0xbe, 0x2a, 0x3e, 0x90, 0xbd, 0xcc, 0x91, 0x08, 0x3e,
  0x28, 0x98, 0x8a, 0x3e, 0xc0, 0x7f, 0x85, 0xbe, 0x40, 0x3f, 0x54, 0x3e,
  0x28, 0xd7, 0x4a, 0x3e, 0x50, 0x9a, 0x52, 0xbe, 0x80, 0x7a, 0x5f, 0x3d,
  0x88, 0x84, 0xa5, 0x3d, 0xcd, 0xc5, 0x6a, 0xbe, 0x52, 0x59, 0x87, 0x3e,
  0x08, 0xed, 0x36, 0x3d, 0x90, 0xcd, 0x8a, 0xbc, 0x78, 0x54, 0x69, 0x3d,
  0x69, 0x16, 0x92, 0xbe, 0xdc, 0xb0, 0x44, 0x3e, 0x60, 0xcc, 0x7d, 0xbc,
  0x0c, 0x2b, 0x4f, 0x3e, 0x80, 0x30, 0x33, 0x3e, 0x2e, 0x47, 0x0f, 0xbe,
  0x99, 0x1d, 0x6e, 0xbe, 0x68, 0x38, 0x83, 0xbe, 0x8c, 0xc2, 0x19, 0xbe,
  0xfd, 0x50, 0x8c, 0xbe, 0xdf, 0xf8, 0x50, 0xbe, 0xf8, 0x25, 0x10, 0x3d,
  0x0e, 0xdd, 0x83, 0xbe, 0x4d, 0x20, 0x33, 0xbe, 0x80, 0x8d, 0xab, 0x3c,
  0x4d, 0xbd, 0x6e, 0xbe, 0x8d, 0x56, 0x9c, 0xbe, 0x60, 0x41, 0x40, 0xbd,
  0xc2, 0x1c, 0x8b, 0xbe, 0xde, 0x82, 0xf5, 0xbd, 0xa6, 0xb5, 0x3a, 0xbe,
  0x40, 0xe7, 0x59, 0x3e, 0x40, 0x7f, 0xac, 0xbb, 0x9c, 0x4a, 0xb5, 0x3d,
  0x23, 0x9f, 0x28, 0xbe, 0xd7, 0x75, 0x2a, 0x3e, 0x81, 0xb4, 0x8a, 0xbe,
  0x79, 0x81, 0xad, 0x3d, 0x38, 0x0f, 0x60, 0xbe, 0x67, 0xd5, 0x94, 0xbb,
  0x11, 0x16, 0x18, 0x3d, 0x62, 0x58, 0x91, 0xbe, 0xce, 0xb2, 0x44, 0x3e,
  0x24, 0x95, 0x5c, 0x3e, 0x66, 0x8c, 0x50, 0xbe, 0x19, 0x85, 0x4e, 0x3e,
  0x70, 0x04, 0x80, 0xbe, 0xb3, 0x77, 0x2b, 0xbe, 0x09, 0x81, 0xa9, 0xbe,
  0x57, 0x3c, 0x4e, 0xbe, 0x05, 0x0b, 0xdc, 0x3d, 0x48, 0x25, 0x22, 0xbe,
  0x58, 0x3a, 0x84, 0x3e, 0x34, 0xe2, 0x7f, 0xbc, 0x90, 0x09, 0x10, 0xbe,
  0x9d, 0x12, 0x64, 0xbd, 0x5b, 0xe3, 0x0a, 0x3e, 0xba, 0xee, 0x44, 0xbe,
  0x95, 0x18, 0x4f, 0xbe, 0x22, 0x8f, 0x00, 0x3e, 0xdb, 0x0f, 0xa3, 0x3d,
  0x7d, 0xac, 0x72, 0xbe, 0x7a, 0xb6, 0xa1, 0x3d, 0xdb, 0x1c, 0x9e, 0xbe,
  0xcf, 0x47, 0x05, 0xbe, 0xfa, 0x52, 0x34, 0xbd, 0xc2, 0xf1, 0x2a, 0x3e,
  0x86, 0xa8, 0x12, 0xbd, 0xa7, 0x90, 0xf1, 0x3d, 0xae, 0x68, 0x3b, 0xbe,
  0xf1, 0x00, 0x8e, 0xbe, 0xf3, 0x49, 0xe9, 0xbd, 0x97, 0x72, 0x7e, 0x3e,
  0xca, 0x40, 0x2a, 0xbe, 0xe0, 0x44, 0x4d, 0xbe, 0xd9, 0xbd, 0x76, 0xbe,
  0x1b, 0x74, 0x9c, 0xbd, 0x18, 0x85, 0x93, 0xbe, 0xc2, 0x2d, 0x56, 0xbd,
  0x68, 0x96, 0xfd, 0x3d, 0x6a, 0x5b, 0xd4, 0xbb, 0x71, 0x2b, 0x3c, 0xbe,
  0x52, 0xff, 0x1e, 0xbe, 0x43, 0x36, 0x7e, 0x3d, 0x1c, 0x42, 0x4c, 0x3d,
  0x8e, 0xf5, 0x48, 0x3d, 0xb4, 0xf7, 0x51, 0xbe, 0x44, 0x3c, 0x5c, 0x3e,
  0x2a, 0xf4, 0x02, 0xbe, 0x8c, 0x41, 0xa7, 0xbd, 0xb1, 0x86, 0x86, 0xbe,
  0x61, 0x08, 0x70, 0x3e, 0xb2, 0x00, 0xae, 0xbd, 0xc5, 0xa8, 0x8e, 0x3e,
  0xd8, 0xa1, 0x8d, 0x3e, 0xd8, 0x76, 0x0f, 0x3c, 0x63, 0x06, 0xc0, 0xbd,
  0x30, 0x8a, 0x24, 0x3e, 0xbf, 0x6d, 0x12, 0xbe, 0xd9, 0x3a, 0x89, 0x3b,
  0x4e, 0xe5, 0x1f, 0xbd, 0xe9, 0x1e, 0x61, 0x3d, 0x16, 0x11, 0xb2, 0xbd,
  0x2b, 0x7e, 0xaa, 0xbe, 0x6f, 0xb1, 0x0f, 0xbe, 0xa4, 0xc7, 0x27, 0x3e,
  0xfd, 0xef, 0x41, 0x3e, 0xed, 0xc2, 0x42, 0x3d, 0xe9, 0xd2, 0xa8, 0x3e,
  0xb4, 0x80, 0x51, 0xbd, 0x66, 0xee, 0xaa, 0x3d, 0xcb, 0x55, 0x80, 0xbe,
  0x43, 0x21, 0x5b, 0xbe, 0xc9, 0x49, 0x0f, 0x3d, 0x6e, 0xca, 0x9a, 0x3e,
  0x7f, 0x79, 0x0b, 0x3e, 0xfe, 0xaa, 0x39, 0xbd, 0x97, 0xa3, 0x15, 0xbd,
  0x33, 0x10, 0x79, 0x3e, 0x1c, 0xcc, 0xa5, 0x3e, 0xe6, 0xe2, 0x18, 0x3d,
  0xc5, 0xc5, 0x58, 0x3c, 0x18, 0x39, 0x38, 0x3e, 0xbd, 0x66, 0x1e, 0x3e,
  0xab, 0xf2, 0xbb, 0xba, 0xc8, 0x30, 0x3f, 0x3e, 0x1b, 0xa1, 0x85, 0x3e,
  0x64, 0xa0, 0x50, 0xbe, 0xe8, 0x19, 0x34, 0x3e, 0x8b, 0x01, 0x97, 0xbe,
  0x7e, 0x80, 0x93, 0xbe, 0x80, 0x1e, 0x14, 0xbe, 0x33, 0xe5, 0x9b, 0x3d,
  0xb2, 0x13, 0x05, 0xbe, 0x6a, 0x17, 0x9a, 0xbe, 0x42, 0x1f, 0x6f, 0x3e,
  0x92, 0xd2, 0x3f, 0x3e, 0x04, 0x8b, 0x83, 0x3e, 0xfb, 0x98, 0xa9, 0x3d,
  0x3d, 0x72, 0x73, 0xbe, 0x7b, 0x0e, 0x14, 0xbe, 0x7f, 0xf9, 0x69, 0x3d,
  0x7d, 0xd6, 0x41, 0x3e, 0xcc, 0x40, 0x4d, 0x3c, 0xab, 0xb7, 0x64, 0x3d,
  0xd6, 0x16, 0x86, 0x3e, 0x2f, 0x72, 0x9b, 0x3e, 0x22, 0x29, 0x39, 0x3e,
  0xe3, 0x2a, 0x86, 0xbe, 0xef, 0x45, 0x8c, 0x3d, 0x13, 0x19, 0x19, 0xbe,
  0x2e, 0xa7, 0x2f, 0xbc, 0x89, 0x80, 0x6e, 0x3e, 0xe0, 0x52, 0x6c, 0x3e,
  0xb3, 0x68, 0x2f, 0xbe, 0x31, 0x2b, 0x9b, 0xbe, 0x84, 0x29, 0xe8, 0x3c,
  0xcb, 0x9b, 0x7b, 0x3e, 0x0b, 0x1e, 0x3a, 0xbe, 0x23, 0x12, 0x86, 0x3d,
  0x56, 0x29, 0x7a, 0x3e, 0xa1, 0x49, 0x98, 0x3e, 0xc4, 0x52, 0x98, 0xbe,
  0xeb, 0x99, 0x49, 0xbe, 0x3d, 0xd1, 0x96, 0xbd, 0xe8, 0xad, 0x6e, 0x3b,
  0xca, 0x00, 0x97, 0xbe, 0x96, 0x4e, 0x32, 0x3e, 0x84, 0x8a, 0x05, 0xbe,
  0x4a, 0x1d, 0x8d, 0xbe, 0xa5, 0x7f, 0x8a, 0x3e, 0x45, 0xeb, 0x16, 0xbe,
  0x97, 0x55, 0x80, 0x3e, 0x56, 0xf3, 0x6e, 0x3e, 0x9c, 0x2c, 0x1f, 0x3e,
  0xcc, 0xfb, 0x50, 0xbe, 0xb4, 0x37, 0xb3, 0x3c, 0x4a, 0x88, 0x60, 0xbe,
  0x2d, 0x9d, 0x8e, 0xbe, 0xe2, 0xa5, 0x2c, 0xbe, 0x44, 0x97, 0xa0, 0xbc,
  0x9f, 0xae, 0x88, 0xbc, 0xc1, 0x6f, 0x0c, 0x3e, 0xd5, 0xb6, 0x91, 0x3e,
  0xb1, 0x92, 0x75, 0xbe, 0x30, 0xec, 0x99, 0xbe, 0xe8, 0xa7, 0x3f, 0x3e,
  0x22, 0x87, 0x9c, 0x3e, 0xaf, 0x26, 0x79, 0xbd, 0xbf, 0x82, 0x88, 0xbe,
  0x85, 0xbb, 0x8a, 0x3e, 0x52, 0x99, 0x6e, 0xbe, 0xb8, 0x6f, 0x96, 0xbd,
  0xc1, 0x77, 0x02, 0x3e, 0x70, 0xbb, 0x3b, 0xbe, 0x53, 0x15, 0x91, 0x3e,
  0xcb, 0x07, 0x96, 0xbe, 0x91, 0x75, 0xdc, 0xbd, 0x5e, 0xd9, 0xd7, 0x3c,
  0x64, 0x7a, 0x0f, 0x3d, 0x2a, 0x43, 0x6a, 0xbd, 0x36, 0x2b, 0x2d, 0x3e,
  0xfe, 0xe6, 0x9d, 0x3e, 0xc4, 0x18, 0x24, 0xbe, 0xb0, 0x0a, 0x06, 0xbe,
  0x85, 0x28, 0x82, 0x3d, 0x42, 0x06, 0x94, 0xbe, 0x1f, 0xfd, 0x47, 0xbe,
  0x5d, 0x88, 0x34, 0xbd, 0xa0, 0xd8, 0xa9, 0x3e, 0x1c, 0xe2, 0x83, 0x3c,
  0xca, 0xc6, 0x76, 0xbe, 0x06, 0x41, 0xad, 0x3e, 0x45, 0x67, 0x02, 0x3e,
  0xd6, 0xa3, 0x74, 0x3d, 0x6b, 0x62, 0x8e, 0x3d, 0x17, 0xe2, 0x6a, 0xbe,
  0xf5, 0x9b, 0x91, 0xbe, 0x7e, 0x1f, 0x2e, 0xbe, 0x9d, 0xbe, 0x10, 0x3e,
  0x35, 0x5d, 0x86, 0xbe, 0xa1, 0x91, 0xb8, 0xbd, 0x60, 0x69, 0xef, 0x3d,
  0x34, 0x2a, 0x20, 0xbe, 0x47, 0xe4, 0x7d, 0x3e, 0x31, 0x0e, 0x5c, 0x3e,
  0xe4, 0xb5, 0x49, 0x3e, 0x78, 0x14, 0x79, 0xbe, 0xd3, 0x46, 0x87, 0xbd,
  0xf0, 0xe1, 0x0d, 0x3e, 0x36, 0x5e, 0x83, 0x3c, 0x05, 0x1c, 0x0f, 0xbe,
  0xde, 0x93, 0x8b, 0xbe, 0xae, 0xa9, 0x9f, 0xba, 0xa9, 0x47, 0x88, 0x3d,
  0x85, 0x78, 0x4f, 0x3e, 0x3a, 0xff, 0x7d, 0xbe, 0x6f, 0x92, 0x03, 0x3c,
  0x56, 0x4e, 0x0d, 0x3e, 0xa1, 0x7e, 0x97, 0x3e, 0x47, 0x02, 0x86, 0xbe,
  0x22, 0x00, 0xcf, 0xbd, 0xd7, 0x4c, 0xa4, 0xbe, 0x23, 0x69, 0x96, 0xbc,
  0xc9, 0x8a, 0x20, 0x3e, 0x1c, 0x3e, 0x0e, 0xbb, 0x22, 0xd8, 0xd3, 0x3d,
  0x7c, 0xa2, 0xc1, 0xbc, 0xb1, 0xcc, 0x07, 0xbe, 0x60, 0x8c, 0xa5, 0xbe,
  0x64, 0x3e, 0xc0, 0xbd, 0xda, 0x08, 0x87, 0xbe, 0xc1, 0x26, 0x73, 0x3d,
  0x47, 0x23, 0xf8, 0x3d, 0xa3, 0xa1, 0x19, 0x3d, 0x87, 0x24, 0x99, 0x3e,
  0x72, 0x52, 0x22, 0x3e, 0x11, 0xee, 0x9d, 0xbe, 0x26, 0xe8, 0x3f, 0xbe,
  0x60, 0x2e, 0x22, 0xbe, 0xb3, 0xcf, 0x91, 0xbe, 0x08, 0x8c, 0x3d, 0xbc,
  0xd1, 0xa8, 0x82, 0x3e, 0x3b, 0xd8, 0xec, 0x3d, 0x69, 0x23, 0x97, 0xbe,
  0x8c, 0x0e, 0xbd, 0xbd, 0x0a, 0x36, 0x34, 0x3e, 0x82, 0x62, 0xa7, 0xbe,
  0x35, 0xce, 0x93, 0xbe, 0x0f, 0xad, 0x3c, 0x3e, 0x02, 0x69, 0x06, 0x3e,
  0xd9, 0x5e, 0x61, 0xbe, 0x93, 0x1b, 0x88, 0x3e, 0xe3, 0xac, 0x9d, 0x3d,
  0x8b, 0x37, 0x00, 0xbd, 0xd9, 0xbc, 0x34, 0x3e, 0xdd, 0xdf, 0x81, 0x3e,
  0xa3, 0xf7, 0x10, 0xbd, 0xb8, 0x4e, 0x85, 0x3c, 0x63, 0xde, 0x00, 0xbe,
  0x21, 0xf6, 0x90, 0x3d, 0x8e, 0xac, 0x2f, 0xbe, 0xa9, 0xcb, 0x01, 0x3e,
  0xd4, 0x23, 0x5f, 0xbe, 0xa7, 0x0e, 0x9b, 0xbd, 0x6a, 0x9b, 0xa9, 0x3d,
  0x8f, 0x0a, 0xe8, 0xbd, 0x46, 0xd2, 0x8d, 0xbe, 0x97, 0x26, 0xde, 0xbc,
  0x69, 0xe0, 0x94, 0x3d, 0xa7, 0xc3, 0xec, 0xbd, 0x5e, 0xcc, 0x93, 0xbd,
  0xf7, 0xd3, 0x59, 0x3e, 0xa2, 0x55, 0xd8, 0x3d, 0x3e, 0xe0, 0xc6, 0xbd,
  0x39, 0x2b, 0xc5, 0x3d, 0xc7, 0xc8, 0x7a, 0xbe, 0x61, 0x02, 0xf3, 0xbd,
  0x03, 0xbb, 0xdd, 0xbd, 0x37, 0x75, 0x3b, 0x3e, 0x4f, 0xfb, 0x7e, 0x3e,
  0x86, 0xf0, 0x0d, 0xbe, 0x79, 0x0b, 0xb9, 0x3d, 0xa1, 0xf3, 0x96, 0x3c,
  0xc1, 0x05, 0x9f, 0x3e, 0x2e, 0xce, 0x08, 0x3d, 0x18, 0x36, 0x9e, 0xbd,
  0x49, 0x30, 0xa5, 0xbd, 0x16, 0xa5, 0x00, 0xbe, 0x46, 0xd4, 0x8f, 0xbc,
  0xf9, 0x00, 0xaa, 0x3e, 0xa8, 0x13, 0x60, 0xbe, 0x1a, 0x66, 0xa1, 0x3e,
  0xe1, 0x89, 0x93, 0x3c, 0xe8, 0x97, 0x91, 0x3e, 0x9b, 0xf9, 0x72, 0xbe,
  0x29, 0xa2, 0x4a, 0xbe, 0x08, 0x65, 0x13, 0x3e, 0x12, 0x58, 0x45, 0xbe,
  0x57, 0xa3, 0xa7, 0x3e, 0xc7, 0xd3, 0x68, 0xbe, 0xed, 0x24, 0x13, 0x3e,
  0x26, 0xbb, 0x62, 0xbb, 0xd8, 0x47, 0xc3, 0xbd, 0xf6, 0x1b, 0x3e, 0x3c,
  0x56, 0x85, 0x6b, 0xbd, 0xd4, 0xf9, 0xa4, 0x3d, 0xde, 0xc2, 0x02, 0x3a,
  0xae, 0x75, 0x59, 0x3e, 0x05, 0x9e, 0x12, 0xbe, 0xda, 0xa7, 0x30, 0x3d,
  0x5c, 0x00, 0xfb, 0xbd, 0x87, 0x93, 0x8a, 0xbd, 0x03, 0xe5, 0x03, 0xbe,
  0x93, 0xc2, 0xac, 0xbe, 0x29, 0x00, 0x65, 0x3e, 0xd9, 0xc8, 0x56, 0xbe,
  0x83, 0xde, 0x84, 0xbc, 0x4a, 0x64, 0x55, 0x3e, 0x45, 0xdf, 0xe3, 0xbd,
  0x04, 0x1a, 0x80, 0xbe, 0x77, 0x4a, 0x10, 0xbe, 0x56, 0x7b, 0x30, 0xbe,
  0x29, 0x7a, 0x67, 0x3e, 0x32, 0xfa, 0x6c, 0xbe, 0x1f, 0x88, 0x4a, 0xbd,
  0xa3, 0x77, 0x54, 0x3d, 0x5d, 0xce, 0x51, 0xbe, 0xb0, 0xfb, 0x8d, 0xbe,
  0x34, 0x94, 0x6d, 0x3d, 0x2b, 0xe7, 0x86, 0xbe, 0x56, 0xba, 0xbe, 0xbd,
  0x59, 0xb8, 0x3e, 0xbd, 0x29, 0xab, 0x98, 0x3e, 0xfe, 0x70, 0xf2, 0xbd,
  0x61, 0xac, 0xd7, 0xbd, 0x03, 0x25, 0x56, 0xbe, 0x77, 0xa9, 0x58, 0x3e,
  0x26, 0xd1, 0x0d, 0x3e, 0x04, 0x5c, 0x63, 0xbe, 0x16, 0x35, 0xfa, 0x3c,
  0x5c, 0xa3, 0xfb, 0x3d, 0xbd, 0x07, 0x20, 0x3e, 0xf5, 0x73, 0x67, 0xbd,
  0x14, 0xf4, 0x1a, 0xbe, 0x08, 0x60, 0x81, 0x3e, 0x37, 0xdc, 0x79, 0xbe,
  0xe7, 0x67, 0xfe, 0x3d, 0xe3, 0x1b, 0x6a, 0x3e, 0x44, 0xa2, 0xa8, 0x3d,
  0xb5, 0x9c, 0x8e, 0x3e, 0x9d, 0xe2, 0x48, 0xbe, 0x52, 0xec, 0x90, 0xbd,
  0xf6, 0xf0, 0x06, 0xbe, 0x65, 0xb8, 0x3f, 0x3d, 0xd1, 0x0d, 0x23, 0x3e,
  0x01, 0x25, 0x84, 0xbc, 0xbe, 0x6a, 0x21, 0x3e, 0x9c, 0x5b, 0x83, 0xbe,
  0x62, 0x4d, 0xcf, 0xbd, 0x75, 0x1d, 0xc6, 0x3d, 0x72, 0xf3, 0x82, 0x3e,
  0xbe, 0x81, 0xa1, 0xbd, 0x24, 0xf6, 0x8e, 0xbe, 0x8c, 0x6c, 0xd3, 0xbd,
  0x16, 0x1d, 0x88, 0xbe, 0xb7, 0xb7, 0x75, 0xbd, 0x12, 0x64, 0x83, 0x3e,
  0x45, 0x2b, 0x3b, 0xbe, 0x3e, 0x7a, 0xcb, 0xbc, 0x2d, 0x28, 0x1b, 0xbd,
  0xd3, 0xb5, 0x8c, 0x3e, 0xcb, 0x40, 0x00, 0x3e, 0xa2, 0x8d, 0x23, 0xbe,
  0x2a, 0xbd, 0xc4, 0xbd, 0x08, 0x1b, 0xae, 0x3d, 0xd0, 0x3d, 0x06, 0xbd,
  0xc4, 0x61, 0x9e, 0xbe, 0x2c, 0xc6, 0x93, 0xbd, 0x27, 0x45, 0x8f, 0x3e,
  0xc5, 0x9f, 0xac, 0xbe, 0x7d, 0x0c, 0x1c, 0x3e, 0x43, 0x56, 0x09, 0xbe,
  0x67, 0x96, 0x43, 0x3e, 0x9a, 0xcc, 0x5e, 0x3e, 0x26, 0xbd, 0x80, 0x3e,
  0x35, 0x8f, 0x9c, 0x3e, 0xae, 0x45, 0xef, 0xbc, 0x6f, 0xa9, 0x88, 0x3e,
  0x27, 0x90, 0x48, 0x3e, 0xd0, 0x72, 0x56, 0x3e, 0x2d, 0xbf, 0x11, 0x3e,
  0x16, 0xc6, 0x4f, 0xbe, 0x6e, 0x3d, 0x0e, 0xbe, 0x40, 0x8b, 0x39, 0x3e,
  0x23, 0x08, 0x07, 0xbd, 0x41, 0xb4, 0x6a, 0xbe, 0xc6, 0x92, 0xa4, 0xbe,
  0x91, 0xe0, 0x07, 0x3e, 0x05, 0x64, 0x9e, 0x3d, 0x78, 0x18, 0xa4, 0x3c,
  0x15, 0x11, 0x5c, 0xbd, 0x87, 0x99, 0x81, 0x3e, 0xdc, 0x78, 0x4a, 0xbd,
  0x7d, 0x4c, 0x0c, 0x3d, 0x25, 0x95, 0xa3, 0x3d, 0x03, 0x9d, 0x4f, 0xbd,
  0x00, 0x4e, 0x63, 0x3e, 0x14, 0x1f, 0x6d, 0xbe, 0xd1, 0xfc, 0x9c, 0xbe,
  0xf4, 0x4c, 0x15, 0x3e, 0xb6, 0xf3, 0x02, 0xbe, 0x62, 0xf3, 0x9e, 0x3e,
  0x4a, 0x53, 0x31, 0xbd, 0xfa, 0xe5, 0x95, 0xbc, 0x0c, 0x30, 0x11, 0x3d,
  0x51, 0x06, 0x91, 0xbe, 0xcd, 0x86, 0xe8, 0x3d, 0xb4, 0xb8, 0x1e, 0xbe,
  0x1a, 0xa4, 0xd9, 0x3d, 0x2d, 0x6d, 0xa1, 0x3e, 0x3c, 0xac, 0x84, 0xbe,
  0x50, 0x8f, 0x4a, 0xbe, 0x9c, 0x44, 0x1a, 0xbe, 0x58, 0x28, 0x06, 0xbe,
  0xd0, 0x08, 0x30, 0x3d, 0x50, 0x51, 0xa0, 0x3e, 0xe2, 0xfa, 0x58, 0x3e,
  0x16, 0x66, 0xb3, 0x3d, 0x4b, 0x02, 0x4c, 0x3e, 0xf3, 0x18, 0x57, 0xbe,
  0x3b, 0x52, 0x94, 0x3d, 0xf7, 0xba, 0x5a, 0xbd, 0x6f, 0x06, 0x8c, 0x3e,
  0xc2, 0x51, 0x8c, 0x3e, 0xbc, 0xa2, 0x9a, 0xbd, 0xbd, 0x15, 0xff, 0x3d,
  0x5d, 0xb8, 0x88, 0x3d, 0x3a, 0x32, 0x9f, 0x3e, 0x04, 0xf0, 0x98, 0x3e,
  0xad, 0x8e, 0x91, 0x3e, 0x1f, 0xc3, 0x15, 0x3e, 0xd8, 0x17, 0x1d, 0x3e,
  0xe9, 0xfd, 0x84, 0x3e, 0x24, 0x82, 0xb0, 0x3c, 0x59, 0xf1, 0x3d, 0x3e,
  0x9f, 0x1a, 0x87, 0x3e, 0x82, 0xb4, 0x65, 0xbc, 0x72, 0x8a, 0x8b, 0x3e,
  0x81, 0x7b, 0x2e, 0xbd, 0x4e, 0xaf, 0x62, 0x3e, 0x2c, 0xcc, 0xc3, 0x3c,
  0x2d, 0x13, 0x0b, 0xbe, 0xff, 0xb3, 0x0b, 0x3e, 0x98, 0xe9, 0xf0, 0x3d,
  0xd2, 0x93, 0x3a, 0x3e, 0xdb, 0x61, 0x7c, 0x3e, 0x03, 0x02, 0x52, 0xbe,
  0x46, 0x5e, 0x29, 0xbe, 0xa4, 0x1f, 0x7b, 0xbe, 0x8a, 0xf0, 0x86, 0xbd,
  0x5a, 0xe1, 0x86, 0xbe, 0xf3, 0x63, 0x36, 0x3e, 0x87, 0xd0, 0x86, 0xbe,
  0x28, 0xc3, 0x4d, 0xbb, 0x39, 0xd7, 0x27, 0xbe, 0x70, 0x70, 0x23, 0x3e,
  0xa1, 0xb5, 0x66, 0x3e, 0xb1, 0x3d, 0x46, 0xbe, 0x68, 0x70, 0x5f, 0x3e,
  0x49, 0x62, 0x93, 0xbd, 0xb6, 0x30, 0x79, 0xbe, 0x49, 0xca, 0xd6, 0x3d,
  0x58, 0x55, 0x97, 0xbe, 0x67, 0x1e, 0x83, 0x3e, 0xe1, 0x6b, 0x1e, 0xbe,
  0xa8, 0x4a, 0xf6, 0x3d, 0xb5, 0x49, 0x96, 0xbe, 0xfe, 0x6d, 0x27, 0x3e,
  0x67, 0xbf, 0x14, 0xbe, 0xc2, 0x93, 0x93, 0xbe, 0x2f, 0x37, 0x63, 0xbe,
  0x13, 0xb6, 0xbe, 0xbe, 0xfe, 0x57, 0xfc, 0x3c, 0xab, 0xb8, 0x4e, 0xbe,
  0x17, 0xcc, 0xbd, 0x3d, 0xfd, 0xc9, 0x54, 0xbe, 0xa5, 0x09, 0x26, 0x3e,
  0x00, 0x56, 0x10, 0xbe, 0x8b, 0xe1, 0xc6, 0x3d, 0xb9, 0x5b, 0x7e, 0x3e,
  0xdb, 0xb5, 0x85, 0xbd, 0x00, 0x3b, 0xe4, 0xbc, 0x78, 0xc7, 0x9b, 0x3d,
  0x63, 0x6a, 0x8c, 0xbc, 0xaf, 0xd4, 0x04, 0x3e, 0x76, 0x1d, 0x9b, 0xbd,
  0xc8, 0xcb, 0x7b, 0xbe, 0x6d, 0x42, 0x77, 0xbe, 0x37, 0xab, 0xb9, 0x3b,
  0x63, 0x52, 0x15, 0xbe, 0x46, 0x52, 0xe1, 0x3d, 0x8c, 0xdf, 0xcd, 0xbd,
  0xf1, 0x8a, 0x85, 0x3e, 0xbb, 0xd2, 0x46, 0xbe, 0xed, 0x4f, 0x7c, 0x3e,
  0x6f, 0x31, 0x33, 0xbe, 0xe9, 0x84, 0x2a, 0x3e, 0xf0, 0x56, 0xa6, 0x3e,
  0x74, 0x0c, 0x3a, 0xbe, 0xc4, 0x69, 0x1e, 0x3e, 0xc4, 0x37, 0x61, 0x3e,
  0x24, 0xba, 0x99, 0xbe, 0xe9, 0x76, 0x33, 0xbe, 0xd2, 0xb3, 0x45, 0x3e,
  0x74, 0x62, 0xcd, 0xbd, 0xdd, 0x4e, 0x0a, 0xbe, 0x08, 0x0f, 0x30, 0x3d,
  0x87, 0x49, 0x1c, 0xbe, 0x53, 0x6c, 0x0a, 0xbd, 0x90, 0x06, 0x41, 0x3e,
  0x6d, 0x33, 0xb4, 0x3d, 0x6c, 0x23, 0x7d, 0x3e, 0xe1, 0x0c, 0x73, 0x3d,
  0x82, 0x1d, 0x6c, 0x3e, 0x35, 0x31, 0xef, 0xbd, 0x52, 0x45, 0xa2, 0x3d,
  0x37, 0x08, 0x8e, 0xbe, 0x3c, 0x62, 0x8e, 0x3d, 0x70, 0xe2, 0x10, 0x3e,
  0xed, 0xf0, 0x2f, 0xbe, 0x4c, 0xef, 0xb9, 0xbe, 0xc0, 0x8c, 0x81, 0xbe,
  0xf9, 0x48, 0x8c, 0xbe, 0x33, 0xd1, 0xc0, 0xbd, 0xca, 0x3e, 0x90, 0xbe,
  0xd7, 0x6f, 0x8b, 0xbe, 0xd6, 0x61, 0xed, 0xbd, 0x6c, 0x66, 0x75, 0xbe,
  0x42, 0xac, 0xa8, 0xbe, 0xcd, 0xb4, 0x3b, 0x3d, 0x72, 0x36, 0x1c, 0x3e,
  0xf6, 0x64, 0xe5, 0xbd, 0x9b, 0x16, 0x1e, 0xbe, 0x39, 0x51, 0x52, 0x3e,
  0x23, 0x15, 0xb9, 0xbc, 0x41, 0x91, 0x1c, 0x3e, 0x77, 0x47, 0x97, 0xbe,
  0x02, 0xd3, 0x88, 0xbe, 0xd2, 0x64, 0x87, 0x3e, 0x38, 0x8a, 0x3d, 0x3e,
  0xad, 0x9a, 0x3a, 0xbe, 0xf1, 0xb7, 0x5d, 0xbe, 0x42, 0x02, 0x83, 0xbe,
  0x95, 0xb3, 0xc5, 0x3d, 0x25, 0x22, 0x26, 0x3e, 0xe8, 0xa2, 0xe0, 0x3c,
  0xc4, 0xda, 0x9c, 0xbe, 0x08, 0x6d, 0xd2, 0xbc, 0xfe, 0x90, 0x9b, 0xbd,
  0x94, 0x65, 0xb8, 0x3c, 0x11, 0xde, 0xef, 0x3d, 0xf8, 0x6b, 0x04, 0x3e,
  0x9a, 0x98, 0xb0, 0xbc, 0x44, 0x24, 0x03, 0xbe, 0x92, 0xe7, 0xaa, 0xbd,
  0x65, 0x1a, 0x35, 0xbe, 0xe5, 0xa9, 0x7b, 0xbe, 0x77, 0xf8, 0x0f, 0xbe,
  0xbb, 0x4a, 0x97, 0x3e, 0x23, 0xca, 0x5a, 0xbe, 0x69, 0x69, 0xc0, 0x3d,
  0xde, 0xaa, 0x50, 0xbc, 0xc6, 0x24, 0x24, 0xbe, 0x8f, 0xde, 0x71, 0xbe,
  0xe5, 0xea, 0x85, 0x3e, 0xa8, 0x81, 0xfb, 0xbd, 0xfb, 0x0b, 0xfd, 0xbd,
  0x9e, 0xf6, 0x82, 0xbe, 0xf7, 0xf3, 0x21, 0xbc, 0xba, 0x4e, 0x39, 0xbe,
  0xff, 0xb4, 0xed, 0xbd, 0x5a, 0x86, 0x3b, 0x3e, 0xb6, 0x8e, 0x89, 0xbd,
  0x04, 0x83, 0xa0, 0xbd, 0xba, 0x58, 0x64, 0xbe, 0x53, 0x8c, 0xac, 0x3d,
  0x99, 0x95, 0xe3, 0xbd, 0x06, 0x21, 0x5d, 0x3e, 0x78, 0x48, 0x01, 0x3e,
  0x63, 0xc6, 0x83, 0xbe, 0xb9, 0xa6, 0xb3, 0x3d, 0xaf, 0x24, 0x5e, 0x3e,
  0x13, 0x3c, 0x40, 0x3e, 0x56, 0xf9, 0x93, 0x3d, 0xf9, 0x83, 0x0d, 0xbe,
  0x50, 0xbb, 0x59, 0x3e, 0x86, 0x70, 0x9f, 0xbc, 0x6a, 0xc6, 0x9f, 0x3d,
  0xa7, 0xdc, 0x4c, 0xbe, 0x9d, 0xcf, 0xbd, 0x3d, 0xa9, 0xac, 0x3c, 0xbe,
  0x41, 0x1f, 0x4c, 0xbe, 0xf3, 0x49, 0x26, 0x3d, 0xb8, 0x26, 0xaf, 0x3d,
  0x22, 0xc1, 0x79, 0x3e, 0x14, 0x88, 0x90, 0x3e, 0xdb, 0xe0, 0xe2, 0x3d,
  0x76, 0xf7, 0x6a, 0x3e, 0x63, 0xde, 0x35, 0xbd, 0x74, 0xe3, 0x9d, 0x3e,
  0x90, 0x86, 0x84, 0x3e, 0x4e, 0x81, 0xd3, 0x3d, 0x6c, 0xd8, 0x2e, 0xb8,
  0xe2, 0x37, 0xb2, 0xbd, 0x82, 0x6f, 0x85, 0xbe, 0x79, 0xe1, 0x94, 0xbd,
  0xf7, 0xbd, 0xa9, 0x3d, 0xe9, 0xa4, 0x08, 0xbe, 0x32, 0xd6, 0x73, 0x3e,
  0x98, 0x69, 0x84, 0xbd, 0xdd, 0xd3, 0x5e, 0x3d, 0x71, 0xfc, 0x78, 0x3e,
  0xa4, 0x70, 0x82, 0xbe, 0xf8, 0x95, 0x33, 0xbe, 0xc2, 0x47, 0xc2, 0xbd,
  0x0d, 0x4c, 0x1d, 0x3c, 0x2c, 0xf2, 0x5d, 0x3e, 0x8c, 0x8a, 0x55, 0x3e,
  0x83, 0x1f, 0x98, 0xbe, 0xcb, 0xbd, 0x09, 0xbe, 0x9e, 0x4b, 0x98, 0x3e,
  0xb8, 0x7b, 0xc9, 0xbd, 0x1b, 0x07, 0xaa, 0xbe, 0x26, 0xdf, 0xa8, 0x3d,
  0xf8, 0xe9, 0x4d, 0x3e, 0xd3, 0x5c, 0xa7, 0xbe, 0xde, 0x88, 0x88, 0x3e,
  0xb5, 0xd7, 0x51, 0xbe, 0xf4, 0xe7, 0x7a, 0xbe, 0xba, 0x6a, 0x01, 0xbe,
  0x14, 0xfc, 0x7c, 0x3e, 0x81, 0xd4, 0xab, 0xbe, 0xe7, 0x2d, 0x2f, 0xbe,
  0xb7, 0x9d, 0x35, 0x3e, 0x61, 0xb4, 0xac, 0xbd, 0xec, 0xe4, 0x95, 0xbe,
  0x80, 0xbf, 0x8a, 0x3d, 0xca, 0x74, 0x8e, 0xbe, 0xf1, 0x2a, 0xc1, 0x3c,
  0xda, 0x68, 0x61, 0xbe, 0x47, 0x6e, 0x91, 0x3e, 0xa7, 0xf4, 0x18, 0xbe,
  0x10, 0x75, 0x0f, 0x3e, 0x84, 0x75, 0x0b, 0x3e, 0x63, 0xe3, 0x9a, 0x3e,
  0xef, 0xd8, 0x5e, 0x3e, 0xb6, 0x4c, 0x43, 0x3c, 0x44, 0x33, 0x2e, 0xbd,
  0x6e, 0x08, 0x10, 0xbe, 0x0e, 0x86, 0x84, 0xbd, 0x51, 0x02, 0x63, 0x3d,
  0x9d, 0xb9, 0xf4, 0xbd, 0x74, 0x84, 0xc9, 0x3d, 0xac, 0x72, 0x7a, 0xbd,
  0xeb, 0xbe, 0xef, 0x3d, 0x27, 0x08, 0xa9, 0x3e, 0xc4, 0x91, 0xf7, 0x3d,
  0x8d, 0x07, 0x71, 0x3e, 0x59, 0x08, 0x8b, 0x3e, 0x8a, 0xb3, 0x88, 0xbe,
  0x26, 0xdf, 0x51, 0x3e, 0x03, 0x02, 0x85, 0x3e, 0x01, 0x1b, 0x20, 0xbe,
  0xae, 0xdf, 0x2f, 0xbe, 0x07, 0x37, 0x10, 0x3d, 0x0a, 0xc1, 0x6b, 0x3d,
  0x7c, 0xcb, 0xb0, 0x3b, 0xab, 0xb7, 0x7f, 0xbd, 0x6e, 0xb7, 0x7e, 0xbd,
  0xab, 0x40, 0x81, 0x3e, 0x08, 0x6e, 0xc3, 0xbd, 0xe0, 0x4d, 0x88, 0x3e,
  0x55, 0xa5, 0x93, 0xbe, 0x8c, 0x15, 0x9d, 0xbd, 0xe2, 0xe0, 0x8a, 0x3e,
  0x52, 0x36, 0x3a, 0x3e, 0xe2, 0x64, 0x08, 0xbe, 0x27, 0x0a, 0xa5, 0xbd,
  0xb5, 0xff, 0xd2, 0x3d, 0xa8, 0x24, 0x22, 0xbe, 0x4c, 0x32, 0x9b, 0x3e,
  0xf4, 0xb1, 0x10, 0xbe, 0xa4, 0x17, 0xad, 0xbd, 0x36, 0x9d, 0x52, 0x3e,
  0x96, 0x93, 0xf8, 0xbd, 0xdc, 0xf3, 0x2f, 0xbc, 0x47, 0x7e, 0x5a, 0xbe,
  0x5c, 0xd9, 0xf0, 0xbb, 0x71, 0x97, 0x03, 0x3d, 0xb9, 0xd6, 0x83, 0x3e,
  0x49, 0xc9, 0x53, 0xbe, 0xd8, 0x2f, 0x89, 0x3e, 0x9f, 0x04, 0x2e, 0x3e,
  0xdf, 0xc7, 0x83, 0x3e, 0xe8, 0x08, 0xcb, 0x3d, 0x91, 0xec, 0x1e, 0x3e,
  0xb9, 0x40, 0xc8, 0xbd, 0x2b, 0xe3, 0x5d, 0x3e, 0x90, 0x2a, 0x35, 0x3e,
  0x50, 0x98, 0xc4, 0x3c, 0x22, 0x05, 0x00, 0xbe, 0xd3, 0x50, 0x93, 0x3e,
  0x21, 0x96, 0x9b, 0x3d, 0xa9, 0xfd, 0x80, 0xbe, 0x56, 0x0d, 0xff, 0xbd,
  0x14, 0x93, 0x03, 0xbc, 0x7a, 0xa6, 0xe3, 0x3d, 0x38, 0xca, 0x34, 0x3e,
  0x33, 0x50, 0x79, 0x3d, 0x29, 0xed, 0x63, 0x3e, 0x75, 0x1f, 0x63, 0xbb,
  0x67, 0xff, 0x3f, 0x3d, 0x2b, 0x31, 0x1c, 0xbe, 0xc2, 0xce, 0x8c, 0xbe,
  0xfc, 0xf0, 0xe0, 0x3d, 0x98, 0x79, 0x86, 0x3d, 0xf8, 0xff, 0x88, 0x3e,
  0xe8, 0x3c, 0x9b, 0x3e, 0xde, 0xf8, 0x96, 0x3e, 0x62, 0x59, 0xf1, 0x3d,
  0x78, 0x19, 0xc6, 0x3d, 0xd6, 0x42, 0x41, 0xbe, 0x53, 0xba, 0x14, 0x3e,
  0x00, 0xf1, 0x0f, 0xbe, 0x79, 0x77, 0x50, 0xbe, 0x19, 0x26, 0x39, 0xbc,
  0xcc, 0x7e, 0x2f, 0xbe, 0x00, 0x88, 0x68, 0x3c, 0xfa, 0x0f, 0x22, 0xbc,
  0x45, 0x54, 0x9f, 0x3c, 0xff, 0x8a, 0x3d, 0xbe, 0xf4, 0x39, 0x9c, 0xbe,
  0x74, 0x42, 0x24, 0x3e, 0xdd, 0xfa, 0x5d, 0x3e, 0xb0, 0x47, 0xc8, 0x3b,
  0xa7, 0x19, 0x5a, 0x3e, 0xad, 0x10, 0xc0, 0x3c, 0x70, 0xe1, 0x41, 0xbe,
  0x96, 0xf7, 0x92, 0xbe, 0x68, 0xd8, 0x07, 0x3c, 0x1a, 0x7d, 0xe2, 0xbd,
  0xb6, 0x03, 0x1f, 0xbe, 0xc1, 0xf1, 0xfc, 0x3d, 0xda, 0x2d, 0x8a, 0xbd,
  0xf3, 0xd1, 0x4a, 0x3e, 0x75, 0xf1, 0x47, 0x3e, 0x2e, 0xb1, 0xb4, 0xbb,
  0xb5, 0x2f, 0xa1, 0xbe, 0x67, 0xc5, 0x4f, 0x3e, 0xd7, 0x84, 0x38, 0xbe,
  0x0c, 0xda, 0x2b, 0xbe, 0x7b, 0xfc, 0x4a, 0xbe, 0x7f, 0x7d, 0x0c, 0xbe,
  0x1d, 0xa7, 0x32, 0xbe, 0x56, 0xf0, 0x13, 0xbe, 0x6e, 0x15, 0xa2, 0x3c,
  0xc1, 0x00, 0x51, 0x3e, 0x9e, 0x76, 0xa7, 0x3d, 0xb5, 0x8b, 0xf6, 0xbc,
  0xc2, 0xfe, 0xff, 0xff, 0x04, 0x00, 0x00, 0x00, 0x50, 0x00, 0x00, 0x00,
  0x60, 0xa7, 0xc8, 0x3d, 0x00, 0x00, 0x00, 0x00, 0x29, 0x84, 0x12, 0xbd,
  0x37, 0xc0, 0x84, 0xbd, 0xad, 0xbd, 0xc4, 0xbc, 0x8f, 0x85, 0xa9, 0xbc,
  0x51, 0x4b, 0xef, 0xbb, 0xcd, 0x10, 0x1e, 0xbd, 0x32, 0x36, 0x0d, 0x3d,
  0xbe, 0xd1, 0x45, 0x3c, 0xf1, 0xfd, 0x93, 0xbd, 0xbc, 0x55, 0xa0, 0x3c,
  0xce, 0xcc, 0xfc, 0xba, 0x98, 0x7b, 0xda, 0xbc, 0x1b, 0xa4, 0x3f, 0xbd,
  0x1a, 0x17, 0xdd, 0xbb, 0xe2, 0xb0, 0xed, 0xbc, 0x33, 0xe4, 0xc3, 0xbc,
  0xae, 0x0f, 0x64, 0x3d, 0x9f, 0x3b, 0x6a, 0xbc, 0x1e, 0xff, 0xff, 0xff,
  0x04, 0x00, 0x00, 0x00, 0x0c, 0x00, 0x00, 0x00, 0x85, 0x43, 0x97, 0x3d,
  0xe6, 0xa2, 0x86, 0xbd, 0x48, 0xea, 0x21, 0x3d, 0x36, 0xff, 0xff, 0xff,
  0x04, 0x00, 0x00, 0x00, 0x28, 0x00, 0x00, 0x00, 0xe9, 0xf1, 0xd8, 0x3d,
  0x16, 0x72, 0x96, 0xbd, 0x72, 0x2a, 0xb3, 0xbd, 0xdd, 0x84, 0x7b, 0x3d,
  0x25, 0xc7, 0xdb, 0xbc, 0x73, 0xb4, 0xb7, 0xbc, 0x50, 0xb7, 0x18, 0xbd,
  0x50, 0x47, 0x60, 0xbd, 0x00, 0x88, 0xb1, 0xbc, 0x71, 0x28, 0xb3, 0x3d,
  0x5c, 0xfa, 0xff, 0xff, 0x60, 0xfa, 0xff, 0xff, 0x0f, 0x00, 0x00, 0x00,
  0x4d, 0x4c, 0x49, 0x52, 0x20, 0x43, 0x6f, 0x6e, 0x76, 0x65, 0x72, 0x74,
  0x65, 0x64, 0x2e, 0x00, 0x01, 0x00, 0x00, 0x00, 0x14, 0x00, 0x00, 0x00,
  0x00, 0x00, 0x0e, 0x00, 0x18, 0x00, 0x14, 0x00, 0x10, 0x00, 0x0c, 0x00,
  0x08, 0x00, 0x04, 0x00, 0x0e, 0x00, 0x00, 0x00, 0x14, 0x00, 0x00, 0x00,
  0x1c, 0x00, 0x00, 0x00, 0x24, 0x01, 0x00, 0x00, 0x28, 0x01, 0x00, 0x00,
  0x2c, 0x01, 0x00, 0x00, 0x04, 0x00, 0x00, 0x00, 0x6d, 0x61, 0x69, 0x6e,
  0x00, 0x00, 0x00, 0x00, 0x04, 0x00, 0x00, 0x00, 0xcc, 0x00, 0x00, 0x00,
  0x84, 0x00, 0x00, 0x00, 0x50, 0x00, 0x00, 0x00, 0x14, 0x00, 0x00, 0x00,
  0x00, 0x00, 0x0e, 0x00, 0x1a, 0x00, 0x14, 0x00, 0x10, 0x00, 0x0c, 0x00,
  0x0b, 0x00, 0x04, 0x00, 0x0e, 0x00, 0x00, 0x00, 0x1c, 0x00, 0x00, 0x00,
  0x00, 0x00, 0x00, 0x09, 0x1c, 0x00, 0x00, 0x00, 0x20, 0x00, 0x00, 0x00,
  0x01, 0x00, 0x00, 0x00, 0x00, 0x00, 0x06, 0x00, 0x08, 0x00, 0x04, 0x00,
  0x06, 0x00, 0x00, 0x00, 0x00, 0x00, 0x80, 0x3f, 0x01, 0x00, 0x00, 0x00,
  0x0a, 0x00, 0x00, 0x00, 0x01, 0x00, 0x00, 0x00, 0x09, 0x00, 0x00, 0x00,
  0x9a, 0xff, 0xff, 0xff, 0x10, 0x00, 0x00, 0x00, 0x00, 0x00, 0x00, 0x08,
  0x0c, 0x00, 0x00, 0x00, 0x10, 0x00, 0x00, 0x00, 0x24, 0xfb, 0xff, 0xff,
  0x01, 0x00, 0x00, 0x00, 0x09, 0x00, 0x00, 0x00, 0x03, 0x00, 0x00, 0x00,
  0x08, 0x00, 0x00, 0x00, 0x06, 0x00, 0x00, 0x00, 0x02, 0x00, 0x00, 0x00,
  0xca, 0xff, 0xff, 0xff, 0x10, 0x00, 0x00, 0x00, 0x00, 0x00, 0x00, 0x08,
  0x10, 0x00, 0x00, 0x00, 0x14, 0x00, 0x00, 0x00, 0xba, 0xff, 0xff, 0xff,
  0x00, 0x00, 0x00, 0x01, 0x01, 0x00, 0x00, 0x00, 0x08, 0x00, 0x00, 0x00,
  0x03, 0x00, 0x00, 0x00, 0x07, 0x00, 0x00, 0x00, 0x05, 0x00, 0x00, 0x00,
  0x01, 0x00, 0x00, 0x00, 0x00, 0x00, 0x0e, 0x00, 0x16, 0x00, 0x00, 0x00,
  0x10, 0x00, 0x0c, 0x00, 0x0b, 0x00, 0x04, 0x00, 0x0e, 0x00, 0x00, 0x00,
  0x18, 0x00, 0x00, 0x00, 0x00, 0x00, 0x00, 0x08, 0x18, 0x00, 0x00, 0x00,
  0x1c, 0x00, 0x00, 0x00, 0x00, 0x00, 0x06, 0x00, 0x08, 0x00, 0x07, 0x00,
  0x06, 0x00, 0x00, 0x00, 0x00, 0x00, 0x00, 0x01, 0x01, 0x00, 0x00, 0x00,
  0x07, 0x00, 0x00, 0x00, 0x03, 0x00, 0x00, 0x00, 0x00, 0x00, 0x00, 0x00,
  0x04, 0x00, 0x00, 0x00, 0x03, 0x00, 0x00, 0x00, 0x01, 0x00, 0x00, 0x00,
  0x0a, 0x00, 0x00, 0x00, 0x01, 0x00, 0x00, 0x00, 0x00, 0x00, 0x00, 0x00,
  0x0b, 0x00, 0x00, 0x00, 0x04, 0x04, 0x00, 0x00, 0x94, 0x03, 0x00, 0x00,
  0x24, 0x03, 0x00, 0x00, 0xd0, 0x02, 0x00, 0x00, 0x88, 0x02, 0x00, 0x00,
  0x3c, 0x02, 0x00, 0x00, 0xf0, 0x01, 0x00, 0x00, 0x68, 0x01, 0x00, 0x00,
  0xd8, 0x00, 0x00, 0x00, 0x60, 0x00, 0x00, 0x00, 0x04, 0x00, 0x00, 0x00,
  0x3e, 0xfc, 0xff, 0xff, 0x00, 0x00, 0x00, 0x01, 0x14, 0x00, 0x00, 0x00,
  0x1c, 0x00, 0x00, 0x00, 0x1c, 0x00, 0x00, 0x00, 0x0b, 0x00, 0x00, 0x00,
  0x34, 0x00, 0x00, 0x00, 0x02, 0x00, 0x00, 0x00, 0xff, 0xff, 0xff, 0xff,
  0x03, 0x00, 0x00, 0x00, 0x28, 0xfc, 0xff, 0xff, 0x19, 0x00, 0x00, 0x00,
  0x53, 0x74, 0x61, 0x74, 0x65, 0x66, 0x75, 0x6c, 0x50, 0x61, 0x72, 0x74,
  0x69, 0x74, 0x69, 0x6f, 0x6e, 0x65, 0x64, 0x43, 0x61, 0x6c, 0x6c, 0x3a,
  0x30, 0x00, 0x00, 0x00, 0x02, 0x00, 0x00, 0x00, 0x01, 0x00, 0x00, 0x00,
  0x03, 0x00, 0x00, 0x00, 0x96, 0xfc, 0xff, 0xff, 0x00, 0x00, 0x00, 0x01,
  0x14, 0x00, 0x00, 0x00, 0x1c, 0x00, 0x00, 0x00, 0x1c, 0x00, 0x00, 0x00,
  0x0a, 0x00, 0x00, 0x00, 0x50, 0x00, 0x00, 0x00, 0x02, 0x00, 0x00, 0x00,
  0xff, 0xff, 0xff, 0xff, 0x03, 0x00, 0x00, 0x00, 0x80, 0xfc, 0xff, 0xff,
  0x34, 0x00, 0x00, 0x00, 0x73, 0x65, 0x71, 0x75, 0x65, 0x6e, 0x74, 0x69,
  0x61, 0x6c, 0x2f, 0x64, 0x65, 0x6e, 0x73, 0x65, 0x5f, 0x32, 0x2f, 0x4d,
  0x61, 0x74, 0x4d, 0x75, 0x6c, 0x3b, 0x73, 0x65, 0x71, 0x75, 0x65, 0x6e,
  0x74, 0x69, 0x61, 0x6c, 0x2f, 0x64, 0x65, 0x6e, 0x73, 0x65, 0x5f, 0x32,
  0x2f, 0x42, 0x69, 0x61, 0x73, 0x41, 0x64, 0x64, 0x00, 0x00, 0x00, 0x00,
  0x02, 0x00, 0x00, 0x00, 0x01, 0x00, 0x00, 0x00, 0x03, 0x00, 0x00, 0x00,
  0x0a, 0xfd, 0xff, 0xff, 0x00, 0x00, 0x00, 0x01, 0x14, 0x00, 0x00, 0x00,
  0x1c, 0x00, 0x00, 0x00, 0x1c, 0x00, 0x00, 0x00, 0x09, 0x00, 0x00, 0x00,
  0x68, 0x00, 0x00, 0x00, 0x02, 0x00, 0x00, 0x00, 0xff, 0xff, 0xff, 0xff,
  0x0a, 0x00, 0x00, 0x00, 0xf4, 0xfc, 0xff, 0xff, 0x4c, 0x00, 0x00, 0x00,
  0x73, 0x65, 0x71, 0x75, 0x65, 0x6e, 0x74, 0x69, 0x61, 0x6c, 0x2f, 0x64,
  0x65, 0x6e, 0x73, 0x65, 0x5f, 0x31, 0x2f, 0x4d, 0x61, 0x74, 0x4d, 0x75,
  0x6c, 0x3b, 0x73, 0x65, 0x71, 0x75, 0x65, 0x6e, 0x74, 0x69, 0x61, 0x6c,
  0x2f, 0x64, 0x65, 0x6e, 0x73, 0x65, 0x5f, 0x31, 0x2f, 0x52, 0x65, 0x6c,
  0x75, 0x3b, 0x73, 0x65, 0x71, 0x75, 0x65, 0x6e, 0x74, 0x69, 0x61, 0x6c,
  0x2f, 0x64, 0x65, 0x6e, 0x73, 0x65, 0x5f, 0x31, 0x2f, 0x42, 0x69, 0x61,
  0x73, 0x41, 0x64, 0x64, 0x00, 0x00, 0x00, 0x00, 0x02, 0x00, 0x00, 0x00,
  0x01, 0x00, 0x00, 0x00, 0x0a, 0x00, 0x00, 0x00, 0x96, 0xfd, 0xff, 0xff,
  0x00, 0x00, 0x00, 0x01, 0x14, 0x00, 0x00, 0x00, 0x1c, 0x00, 0x00, 0x00,
  0x1c, 0x00, 0x00, 0x00, 0x08, 0x00, 0x00, 0x00, 0x60, 0x00, 0x00, 0x00,
  0x02, 0x00, 0x00, 0x00, 0xff, 0xff, 0xff, 0xff, 0x14, 0x00, 0x00, 0x00,
  0x80, 0xfd, 0xff, 0xff, 0x46, 0x00, 0x00, 0x00, 0x73, 0x65, 0x71, 0x75,
  0x65, 0x6e, 0x74, 0x69, 0x61, 0x6c, 0x2f, 0x64, 0x65, 0x6e, 0x73, 0x65,
  0x2f, 0x4d, 0x61, 0x74, 0x4d, 0x75, 0x6c, 0x3b, 0x73, 0x65, 0x71, 0x75,
  0x65, 0x6e, 0x74, 0x69, 0x61, 0x6c, 0x2f, 0x64, 0x65, 0x6e, 0x73, 0x65,
  0x2f, 0x52, 0x65, 0x6c, 0x75, 0x3b, 0x73, 0x65, 0x71, 0x75, 0x65, 0x6e,
  0x74, 0x69, 0x61, 0x6c, 0x2f, 0x64, 0x65, 0x6e, 0x73, 0x65, 0x2f, 0x42,
  0x69, 0x61, 0x73, 0x41, 0x64, 0x64, 0x00, 0x00, 0x02, 0x00, 0x00, 0x00,
  0x01, 0x00, 0x00, 0x00, 0x14, 0x00, 0x00, 0x00, 0x86, 0xfe, 0xff, 0xff,
  0x00, 0x00, 0x00, 0x01, 0x10, 0x00, 0x00, 0x00, 0x10, 0x00, 0x00, 0x00,
  0x07, 0x00, 0x00, 0x00, 0x28, 0x00, 0x00, 0x00, 0xf4, 0xfd, 0xff, 0xff,
  0x19, 0x00, 0x00, 0x00, 0x73, 0x65, 0x71, 0x75, 0x65, 0x6e, 0x74, 0x69,
  0x61, 0x6c, 0x2f, 0x64, 0x65, 0x6e, 0x73, 0x65, 0x5f, 0x32, 0x2f, 0x4d,
  0x61, 0x74, 0x4d, 0x75, 0x6c, 0x00, 0x00, 0x00, 0x02, 0x00, 0x00, 0x00,
  0x03, 0x00, 0x00, 0x00, 0x0a, 0x00, 0x00, 0x00, 0xce, 0xfe, 0xff, 0xff,
  0x00, 0x00, 0x00, 0x01, 0x10, 0x00, 0x00, 0x00, 0x10, 0x00, 0x00, 0x00,
  0x06, 0x00, 0x00, 0x00, 0x28, 0x00, 0x00, 0x00, 0x3c, 0xfe, 0xff, 0xff,
  0x19, 0x00, 0x00, 0x00, 0x73, 0x65, 0x71, 0x75, 0x65, 0x6e, 0x74, 0x69,
  0x61, 0x6c, 0x2f, 0x64, 0x65, 0x6e, 0x73, 0x65, 0x5f, 0x31, 0x2f, 0x4d,
  0x61, 0x74, 0x4d, 0x75, 0x6c, 0x00, 0x00, 0x00, 0x02, 0x00, 0x00, 0x00,
  0x0a, 0x00, 0x00, 0x00, 0x14, 0x00, 0x00, 0x00, 0x16, 0xff, 0xff, 0xff,
  0x00, 0x00, 0x00, 0x01, 0x10, 0x00, 0x00, 0x00, 0x10, 0x00, 0x00, 0x00,
  0x05, 0x00, 0x00, 0x00, 0x24, 0x00, 0x00, 0x00, 0x84, 0xfe, 0xff, 0xff,
  0x17, 0x00, 0x00, 0x00, 0x73, 0x65, 0x71, 0x75, 0x65, 0x6e, 0x74, 0x69,
  0x61, 0x6c, 0x2f, 0x64, 0x65, 0x6e, 0x73, 0x65, 0x2f, 0x4d, 0x61, 0x74,
  0x4d, 0x75, 0x6c, 0x00, 0x02, 0x00, 0x00, 0x00, 0x14, 0x00, 0x00, 0x00,
  0x2a, 0x00, 0x00, 0x00, 0x5a, 0xff, 0xff, 0xff, 0x00, 0x00, 0x00, 0x01,
  0x10, 0x00, 0x00, 0x00, 0x10, 0x00, 0x00, 0x00, 0x04, 0x00, 0x00, 0x00,
  0x34, 0x00, 0x00, 0x00, 0xc8, 0xfe, 0xff, 0xff, 0x27, 0x00, 0x00, 0x00,
  0x73, 0x65, 0x71, 0x75, 0x65, 0x6e, 0x74, 0x69, 0x61, 0x6c, 0x2f, 0x64,
  0x65, 0x6e, 0x73, 0x65, 0x2f, 0x42, 0x69, 0x61, 0x73, 0x41, 0x64, 0x64,
  0x2f, 0x52, 0x65, 0x61, 0x64, 0x56, 0x61, 0x72, 0x69, 0x61, 0x62, 0x6c,
  0x65, 0x4f, 0x70, 0x00, 0x01, 0x00, 0x00, 0x00, 0x14, 0x00, 0x00, 0x00,
  0xaa, 0xff, 0xff, 0xff, 0x00, 0x00, 0x00, 0x01, 0x10, 0x00, 0x00, 0x00,
  0x10, 0x00, 0x00, 0x00, 0x03, 0x00, 0x00, 0x00, 0x38, 0x00, 0x00, 0x00,
  0x18, 0xff, 0xff, 0xff, 0x29, 0x00, 0x00, 0x00, 0x73, 0x65, 0x71, 0x75,
  0x65, 0x6e, 0x74, 0x69, 0x61, 0x6c, 0x2f, 0x64, 0x65, 0x6e, 0x73, 0x65,
  0x5f, 0x32, 0x2f, 0x42, 0x69, 0x61, 0x73, 0x41, 0x64, 0x64, 0x2f, 0x52,
  0x65, 0x61, 0x64, 0x56, 0x61, 0x72, 0x69, 0x61, 0x62, 0x6c, 0x65, 0x4f,
  0x70, 0x00, 0x00, 0x00, 0x01, 0x00, 0x00, 0x00, 0x03, 0x00, 0x00, 0x00,
  0x00, 0x00, 0x16, 0x00, 0x18, 0x00, 0x14, 0x00, 0x00, 0x00, 0x10, 0x00,
  0x0c, 0x00, 0x08, 0x00, 0x00, 0x00, 0x00, 0x00, 0x00, 0x00, 0x07, 0x00,
  0x16, 0x00, 0x00, 0x00, 0x00, 0x00, 0x00, 0x01, 0x10, 0x00, 0x00, 0x00,
  0x10, 0x00, 0x00, 0x00, 0x02, 0x00, 0x00, 0x00, 0x38, 0x00, 0x00, 0x00,
  0x84, 0xff, 0xff, 0xff, 0x29, 0x00, 0x00, 0x00, 0x73, 0x65, 0x71, 0x75,
  0x65, 0x6e, 0x74, 0x69, 0x61, 0x6c, 0x2f, 0x64, 0x65, 0x6e, 0x73, 0x65,
  0x5f, 0x31, 0x2f, 0x42, 0x69, 0x61, 0x73, 0x41, 0x64, 0x64, 0x2f, 0x52,
  0x65, 0x61, 0x64, 0x56, 0x61, 0x72, 0x69, 0x61, 0x62, 0x6c, 0x65, 0x4f,
  0x70, 0x00, 0x00, 0x00, 0x01, 0x00, 0x00, 0x00, 0x0a, 0x00, 0x00, 0x00,
  0x00, 0x00, 0x16, 0x00, 0x1c, 0x00, 0x18, 0x00, 0x00, 0x00, 0x14, 0x00,
  0x10, 0x00, 0x0c, 0x00, 0x00, 0x00, 0x00, 0x00, 0x08, 0x00, 0x07, 0x00,
  0x16, 0x00, 0x00, 0x00, 0x00, 0x00, 0x00, 0x01, 0x14, 0x00, 0x00, 0x00,
  0x20, 0x00, 0x00, 0x00, 0x20, 0x00, 0x00, 0x00, 0x01, 0x00, 0x00, 0x00,
  0x3c, 0x00, 0x00, 0x00, 0x02, 0x00, 0x00, 0x00, 0xff, 0xff, 0xff, 0xff,
  0x2a, 0x00, 0x00, 0x00, 0x04, 0x00, 0x04, 0x00, 0x04, 0x00, 0x00, 0x00,
  0x1d, 0x00, 0x00, 0x00, 0x73, 0x65, 0x72, 0x76, 0x69, 0x6e, 0x67, 0x5f,
  0x64, 0x65, 0x66, 0x61, 0x75, 0x6c, 0x74, 0x5f, 0x64, 0x65, 0x6e, 0x73,
  0x65, 0x5f, 0x69, 0x6e, 0x70, 0x75, 0x74, 0x3a, 0x30, 0x00, 0x00, 0x00,
  0x02, 0x00, 0x00, 0x00, 0x01, 0x00, 0x00, 0x00, 0x2a, 0x00, 0x00, 0x00,
  0x02, 0x00, 0x00, 0x00, 0x20, 0x00, 0x00, 0x00, 0x04, 0x00, 0x00, 0x00,
  0xf4, 0xff, 0xff, 0xff, 0x19, 0x00, 0x00, 0x00, 0x00, 0x00, 0x00, 0x19,
  0x0c, 0x00, 0x0c, 0x00, 0x0b, 0x00, 0x00, 0x00, 0x00, 0x00, 0x04, 0x00,
  0x0c, 0x00, 0x00, 0x00, 0x09, 0x00, 0x00, 0x00, 0x00, 0x00, 0x00, 0x09};
unsigned int model_tflite_len = 15240;

unsigned char* get_model_data() {
  return (unsigned char*)g_tof_detector_model_data;
}
